{
  "version": "1.0",
  "truncation": null,
  "padding": null,
  "added_tokens": [
    {
      "id": 0,
      "content": "[UNK]",
      "single_word": false,
      "lstrip": false,
      "rstrip": false,
      "normalized": false,
      "special": true
    },
    {
      "id": 1,
      "content": "<|titre|>",
      "single_word": false,
      "lstrip": false,
      "rstrip": false,
      "normalized": false,
      "special": true
    },
    {
      "id": 2,
      "content": "<|sep|>",
      "single_word": false,
      "lstrip": false,
      "rstrip": false,
      "normalized": false,
      "special": true
    }
  ],
  "normalizer": null,
  "pre_tokenizer": {
    "type": "Whitespace"
  },
  "post_processor": null,
  "decoder": null,
  "model": {
    "type": "BPE",
    "dropout": null,
    "unk_token": null,
    "continuing_subword_prefix": null,
    "end_of_word_suffix": null,
    "fuse_unk": false,
    "byte_fallback": false,
    "ignore_merges": false,
    "vocab": {
      "[UNK]": 0,
      "<|titre|>": 1,
      "<|sep|>": 2,
      "!": 3,
      "\"": 4,
      "#": 5,
      "'": 6,
      "(": 7,
      ")": 8,
      "*": 9,
      ",": 10,
      "-": 11,
      ".": 12,
      "0": 13,
      "1": 14,
      "2": 15,
      "3": 16,
      "4": 17,
      "5": 18,
      "6": 19,
      "7": 20,
      "8": 21,
      "9": 22,
      ":": 23,
      ";": 24,
      "<": 25,
      ">": 26,
      "?": 27,
      "[": 28,
      "]": 29,
      "a": 30,
      "b": 31,
      "c": 32,
      "d": 33,
      "e": 34,
      "f": 35,
      "g": 36,
      "h": 37,
      "i": 38,
      "j": 39,
      "k": 40,
      "l": 41,
      "m": 42,
      "n": 43,
      "o": 44,
      "p": 45,
      "q": 46,
      "r": 47,
      "s": 48,
      "t": 49,
      "u": 50,
      "v": 51,
      "w": 52,
      "x": 53,
      "y": 54,
      "z": 55,
      "|": 56,
      "": 57,
      "": 58,
      "«": 59,
      "°": 60,
      "»": 61,
      "à": 62,
      "â": 63,
      "ç": 64,
      "è": 65,
      "é": 66,
      "ê": 67,
      "ë": 68,
      "î": 69,
      "ï": 70,
      "ô": 71,
      "ù": 72,
      "û": 73,
      "ü": 74,
      "œ": 75,
      "‘": 76,
      "’": 77,
      "en": 78,
      "le": 79,
      "ou": 80,
      "re": 81,
      "ai": 82,
      "on": 83,
      "de": 84,
      "qu": 85,
      "an": 86,
      "er": 87,
      "it": 88,
      "es": 89,
      "au": 90,
      "et": 91,
      "il": 92,
      "un": 93,
      "la": 94,
      "ent": 95,
      "se": 96,
      "oi": 97,
      "eu": 98,
      "ar": 99,
      "ait": 100,
      "ch": 101,
      "que": 102,
      "our": 103,
      "te": 104,
      "ce": 105,
      "or": 106,
      "les": 107,
      "ne": 108,
      "ant": 109,
      "is": 110,
      "in": 111,
      "pr": 112,
      "ous": 113,
      "tre": 114,
      "om": 115,
      "ur": 116,
      "as": 117,
      "me": 118,
      "ais": 119,
      "lu": 120,
      "tr": 121,
      "son": 122,
      "si": 123,
      "est": 124,
      "av": 125,
      "par": 126,
      "ien": 127,
      "at": 128,
      "ge": 129,
      "<|": 130,
      "je": 131,
      "|>": 132,
      "des": 133,
      "al": 134,
      "tou": 135,
      "du": 136,
      "ans": 137,
      "sa": 138,
      "lle": 139,
      "ét": 140,
      "pour": 141,
      "qui": 142,
      "vous": 143,
      "ir": 144,
      "con": 145,
      "pas": 146,
      "eux": 147,
      "ain": 148,
      "ort": 149,
      "li": 150,
      "une": 151,
      "am": 152,
      "dit": 153,
      "tit": 154,
      "vo": 155,
      "eur": 156,
      "oin": 157,
      "com": 158,
      "titre": 159,
      "cr": 160,
      "di": 161,
      "end": 162,
      "tout": 163,
      "plu": 164,
      "aux": 165,
      "leur": 166,
      "..": 167,
      "mp": 168,
      "ouv": 169,
      "ois": 170,
      "vi": 171,
      "ère": 172,
      "lui": 173,
      "dé": 174,
      "gr": 175,
      "ont": 176,
      "su": 177,
      "ci": 178,
      "plus": 179,
      "ma": 180,
      "ser": 181,
      "aire": 182,
      "ap": 183,
      "ment": 184,
      "ab": 185,
      "ut": 186,
      "bien": 187,
      "ces": 188,
      "sur": 189,
      "che": 190,
      "ons": 191,
      "fait": 192,
      "elle": 193,
      "os": 194,
      "and": 195,
      "cet": 196,
      "dans": 197,
      "autre": 198,
      "mon": 199,
      "oup": 200,
      "és": 201,
      "peu": 202,
      "ff": 203,
      "aut": 204,
      "mais": 205,
      "ses": 206,
      "nous": 207,
      "be": 208,
      "gn": 209,
      "res": 210,
      "jour": 211,
      "ri": 212,
      "aient": 213,
      "pu": 214,
      "quel": 215,
      "ils": 216,
      "mi": 217,
      "ac": 218,
      "ux": 219,
      "age": 220,
      "ée": 221,
      "cour": 222,
      "ens": 223,
      "mes": 224,
      "pro": 225,
      "ér": 226,
      "sep": 227,
      "oir": 228,
      "pe": 229,
      "gu": 230,
      "don": 231,
      "ver": 232,
      "oint": 233,
      "pa": 234,
      "ot": 235,
      "ier": 236,
      "était": 237,
      "per": 238,
      "point": 239,
      "us": 240,
      "ille": 241,
      "ie": 242,
      "oit": 243,
      "sans": 244,
      "cette": 245,
      "tant": 246,
      "co": 247,
      "ger": 248,
      "moi": 249,
      "tous": 250,
      "ure": 251,
      "mal": 252,
      "ôt": 253,
      "pl": 254,
      "ard": 255,
      "cor": 256,
      "ré": 257,
      "ter": 258,
      "ez": 259,
      "ti": 260,
      "dis": 261,
      "enf": 262,
      "ès": 263,
      "deux": 264,
      "cher": 265,
      "hom": 266,
      "ême": 267,
      "puis": 268,
      "fut": 269,
      "main": 270,
      "ren": 271,
      "cer": 272,
      "bon": 273,
      "mar": 274,
      "quelque": 275,
      "temp": 276,
      "comme": 277,
      "car": 278,
      "no": 279,
      "ex": 280,
      "man": 281,
      "....": 282,
      "faire": 283,
      "gens": 284,
      "ve": 285,
      "tu": 286,
      "mb": 287,
      "ec": 288,
      "fort": 289,
      "ra": 290,
      "sont": 291,
      "avait": 292,
      "ût": 293,
      "même": 294,
      "asse": 295,
      "ître": 296,
      "aus": 297,
      "avec": 298,
      "fr": 299,
      "out": 300,
      "ul": 301,
      "être": 302,
      "ni": 303,
      "là": 304,
      "fit": 305,
      "tes": 306,
      "vre": 307,
      "emp": 308,
      "ph": 309,
      "jours": 310,
      "ête": 311,
      "orte": 312,
      "homme": 313,
      "ine": 314,
      "ose": 315,
      "rais": 316,
      "able": 317,
      "leurs": 318,
      "ven": 319,
      "ance": 320,
      "voy": 321,
      "lé": 322,
      "br": 323,
      "prit": 324,
      "ins": 325,
      "eurs": 326,
      "temps": 327,
      "endre": 328,
      "ag": 329,
      "coup": 330,
      "faut": 331,
      "oy": 332,
      "trouv": 333,
      "entre": 334,
      "vie": 335,
      "lon": 336,
      "notre": 337,
      "mé": 338,
      "eut": 339,
      "ple": 340,
      "vou": 341,
      "ants": 342,
      "beau": 343,
      "rien": 344,
      "moin": 345,
      "lait": 346,
      "quand": 347,
      "ju": 348,
      "loup": 349,
      "quoi": 350,
      "lo": 351,
      "non": 352,
      "met": 353,
      "peut": 354,
      "ts": 355,
      "bre": 356,
      "dr": 357,
      "ani": 358,
      "maître": 359,
      "dou": 360,
      "hu": 361,
      "sé": 362,
      "vit": 363,
      "vers": 364,
      "sort": 365,
      "tour": 366,
      "ler": 367,
      "lais": 368,
      "cu": 369,
      "onn": 370,
      "port": 371,
      "va": 372,
      "voir": 373,
      "nu": 374,
      "eure": 375,
      "vient": 376,
      "part": 377,
      "chez": 378,
      "op": 379,
      "em": 380,
      "voi": 381,
      "jet": 382,
      "int": 383,
      "ob": 384,
      "ents": 385,
      "aff": 386,
      "fin": 387,
      "fais": 388,
      "té": 389,
      "pit": 390,
      "aine": 391,
      "toujours": 392,
      "votre": 393,
      "dire": 394,
      "cert": 395,
      "pre": 396,
      "grand": 397,
      "oire": 398,
      "ion": 399,
      "jus": 400,
      "sour": 401,
      "chose": 402,
      "att": 403,
      "ainsi": 404,
      "dieux": 405,
      "so": 406,
      "tel": 407,
      "près": 408,
      "ats": 409,
      "donc": 410,
      "fois": 411,
      "gne": 412,
      "nos": 413,
      "ang": 414,
      "comm": 415,
      "rent": 416,
      "ité": 417,
      "ors": 418,
      "iens": 419,
      "toute": 420,
      "contre": 421,
      "renard": 422,
      "for": 423,
      "ât": 424,
      "chac": 425,
      "pris": 426,
      "dieu": 427,
      "ite": 428,
      "ord": 429,
      "aussi": 430,
      "moins": 431,
      "où": 432,
      "rait": 433,
      "sou": 434,
      "pri": 435,
      "trop": 436,
      "mer": 437,
      "sent": 438,
      "ay": 439,
      "fem": 440,
      "dev": 441,
      "chacun": 442,
      "dont": 443,
      "né": 444,
      "ble": 445,
      "pet": 446,
      "lar": 447,
      "celui": 448,
      "ber": 449,
      "ire": 450,
      "mis": 451,
      "trait": 452,
      "dre": 453,
      "el": 454,
      "fi": 455,
      "pend": 456,
      "pos": 457,
      "char": 458,
      "fon": 459,
      "ence": 460,
      "fer": 461,
      "ign": 462,
      "mort": 463,
      "semb": 464,
      "mieux": 465,
      "eût": 466,
      "mot": 467,
      "rai": 468,
      "der": 469,
      "esprit": 470,
      "illes": 471,
      "lion": 472,
      "enfin": 473,
      "cou": 474,
      "font": 475,
      "gent": 476,
      "amour": 477,
      "imp": 478,
      "souv": 479,
      "vois": 480,
      "encor": 481,
      "certain": 482,
      "eau": 483,
      "sant": 484,
      "chat": 485,
      "sage": 486,
      "jam": 487,
      "roi": 488,
      "prend": 489,
      "pau": 490,
      "donn": 491,
      "sait": 492,
      "sous": 493,
      "ques": 494,
      "affaire": 495,
      "femme": 496,
      "heure": 497,
      "tent": 498,
      "its": 499,
      "ilà": 500,
      "pré": 501,
      "voilà": 502,
      "ds": 503,
      "pou": 504,
      "sau": 505,
      "cela": 506,
      "jamais": 507,
      "aille": 508,
      "ayant": 509,
      "pendant": 510,
      "pen": 511,
      "rat": 512,
      "sit": 513,
      "prin": 514,
      "èrent": 515,
      "rer": 516,
      "irent": 517,
      "sitôt": 518,
      "ale": 519,
      "ca": 520,
      "cent": 521,
      "raison": 522,
      "po": 523,
      "pla": 524,
      "père": 525,
      "pie": 526,
      "sin": 527,
      "vent": 528,
      "seul": 529,
      "urs": 530,
      "suis": 531,
      "gar": 532,
      "som": 533,
      "tom": 534,
      "erre": 535,
      "avoir": 536,
      "vos": 537,
      "mit": 538,
      "nouv": 539,
      "oc": 540,
      "ps": 541,
      "sais": 542,
      "ten": 543,
      "tête": 544,
      "lieu": 545,
      "app": 546,
      "assez": 547,
      "jupit": 548,
      "jupiter": 549,
      "soin": 550,
      "soit": 551,
      "uit": 552,
      "tra": 553,
      "bout": 554,
      "fa": 555,
      "gé": 556,
      "ici": 557,
      "mo": 558,
      "ta": 559,
      "prendre": 560,
      "compa": 561,
      "plais": 562,
      "fable": 563,
      "tin": 564,
      "avant": 565,
      "autres": 566,
      "march": 567,
      "........": 568,
      "aussitôt": 569,
      "animal": 570,
      "nom": 571,
      "air": 572,
      "ante": 573,
      "seau": 574,
      "arri": 575,
      "cha": 576,
      "étant": 577,
      "cours": 578,
      "peine": 579,
      "premi": 580,
      "pauvre": 581,
      "ges": 582,
      "gis": 583,
      "nat": 584,
      "pi": 585,
      "pouv": 586,
      "ton": 587,
      "ist": 588,
      "conn": 589,
      "cas": 590,
      "ceux": 591,
      "men": 592,
      "âne": 593,
      "auc": 594,
      "chant": 595,
      "pare": 596,
      "bou": 597,
      "min": 598,
      "dem": 599,
      "allait": 600,
      "court": 601,
      "gue": 602,
      "pay": 603,
      "après": 604,
      "hab": 605,
      "honn": 606,
      "ière": 607,
      "maux": 608,
      "oie": 609,
      "chien": 610,
      "celle": 611,
      "lut": 612,
      "grâ": 613,
      "let": 614,
      "lez": 615,
      "las": 616,
      "prés": 617,
      "ami": 618,
      "peuple": 619,
      "souvent": 620,
      "compagn": 621,
      "da": 622,
      "sot": 623,
      "ue": 624,
      "ît": 625,
      "onde": 626,
      "quit": 627,
      "prom": 628,
      "trois": 629,
      "sui": 630,
      "monde": 631,
      "long": 632,
      "fils": 633,
      "go": 634,
      "haut": 635,
      "veut": 636,
      "yeux": 637,
      "éc": 638,
      "ail": 639,
      "seign": 640,
      "lant": 641,
      "veux": 642,
      "chan": 643,
      "cham": 644,
      "voit": 645,
      "sus": 646,
      "donne": 647,
      "mains": 648,
      "souris": 649,
      "ad": 650,
      "belle": 651,
      "four": 652,
      "off": 653,
      "use": 654,
      "arr": 655,
      "tri": 656,
      "comp": 657,
      "serv": 658,
      "laisse": 659,
      "im": 660,
      "ore": 661,
      "vin": 662,
      "ette": 663,
      "art": 664,
      "ères": 665,
      "gré": 666,
      "rép": 667,
      "bonne": 668,
      "dame": 669,
      "bas": 670,
      "gl": 671,
      "jou": 672,
      "rend": 673,
      "vien": 674,
      "val": 675,
      "écr": 676,
      "êtes": 677,
      "qua": 678,
      "argent": 679,
      "eff": 680,
      "hé": 681,
      "ié": 682,
      "ile": 683,
      "lou": 684,
      "lit": 685,
      "mor": 686,
      "nes": 687,
      "vain": 688,
      "rez": 689,
      "ché": 690,
      "ours": 691,
      "core": 692,
      "bli": 693,
      "cé": 694,
      "lan": 695,
      "ol": 696,
      "pé": 697,
      "rom": 698,
      "soi": 699,
      "ers": 700,
      "trav": 701,
      "avent": 702,
      "toutes": 703,
      "resse": 704,
      "terre": 705,
      "enfants": 706,
      "fortune": 707,
      "droit": 708,
      "animaux": 709,
      "bois": 710,
      "loin": 711,
      "mau": 712,
      "pér": 713,
      "soup": 714,
      "encore": 715,
      "ret": 716,
      "cependant": 717,
      "person": 718,
      "plain": 719,
      "disait": 720,
      "pieds": 721,
      "plaisir": 722,
      "fou": 723,
      "gle": 724,
      "mour": 725,
      "mont": 726,
      "toi": 727,
      "esse": 728,
      "sire": 729,
      "jusqu": 730,
      "marchand": 731,
      "grâce": 732,
      "bi": 733,
      "cit": 734,
      "vu": 735,
      "quer": 736,
      "ande": 737,
      "trés": 738,
      "autant": 739,
      "iers": 740,
      "corps": 741,
      "maint": 742,
      "beaucoup": 743,
      "fond": 744,
      "prince": 745,
      "singe": 746,
      "gal": 747,
      "mou": 748,
      "vrai": 749,
      "dez": 750,
      "quant": 751,
      "uni": 752,
      "pren": 753,
      "sujet": 754,
      "mots": 755,
      "fu": 756,
      "gard": 757,
      "porte": 758,
      "vant": 759,
      "âme": 760,
      "aign": 761,
      "prét": 762,
      "étaient": 763,
      "cré": 764,
      "gros": 765,
      "plein": 766,
      "voici": 767,
      "berger": 768,
      ";;": 769,
      "bat": 770,
      "cam": 771,
      "oiseau": 772,
      "contr": 773,
      "croy": 774,
      "ouver": 775,
      "perd": 776,
      "logis": 777,
      "force": 778,
      "nature": 779,
      "hér": 780,
      "mille": 781,
      "pres": 782,
      "vé": 783,
      "vais": 784,
      "étr": 785,
      "aise": 786,
      "ill": 787,
      "lat": 788,
      "nez": 789,
      "trom": 790,
      "troup": 791,
      "alors": 792,
      "content": 793,
      "lie": 794,
      "lieux": 795,
      "cru": 796,
      "ables": 797,
      "phil": 798,
      "venir": 799,
      "mettre": 800,
      "heureux": 801,
      "bour": 802,
      "cs": 803,
      "ct": 804,
      "dan": 805,
      "fau": 806,
      "loi": 807,
      "ner": 808,
      "ru": 809,
      "sens": 810,
      "ule": 811,
      "çon": 812,
      "tru": 813,
      "sons": 814,
      "jeune": 815,
      "été": 816,
      "comment": 817,
      "ciel": 818,
      "quelques": 819,
      "exemp": 820,
      "souff": 821,
      "voisin": 822,
      "bes": 823,
      "dor": 824,
      "dès": 825,
      "ga": 826,
      "mat": 827,
      "mout": 828,
      "raient": 829,
      "tôt": 830,
      "ème": 831,
      "êt": 832,
      "ceci": 833,
      "avaient": 834,
      "avez": 835,
      "crois": 836,
      "appro": 837,
      "appe": 838,
      "abord": 839,
      "col": 840,
      "petits": 841,
      "présent": 842,
      "seigneur": 843,
      "aventure": 844,
      "fs": 845,
      "her": 846,
      "lles": 847,
      "put": 848,
      "rou": 849,
      "th": 850,
      "ète": 851,
      "éch": 852,
      "aim": 853,
      "sieurs": 854,
      "passe": 855,
      "crut": 856,
      "ouvr": 857,
      "mage": 858,
      "maison": 859,
      "tient": 860,
      "devant": 861,
      "petit": 862,
      "habit": 863,
      "bles": 864,
      "but": 865,
      "mom": 866,
      "mère": 867,
      "ro": 868,
      "œu": 869,
      "aurait": 870,
      "tez": 871,
      "dessus": 872,
      "conse": 873,
      "...": 874,
      "faisait": 875,
      "donner": 876,
      "somme": 877,
      "honneur": 878,
      "cau": 879,
      "emb": 880,
      "lors": 881,
      "ope": 882,
      "peur": 883,
      "st": 884,
      "tir": 885,
      "vis": 886,
      "vres": 887,
      "vint": 888,
      "viens": 889,
      "épou": 890,
      "endu": 891,
      "retour": 892,
      "trou": 893,
      "cri": 894,
      "diff": 895,
      "déf": 896,
      "serait": 897,
      "aper": 898,
      "ments": 899,
      "chercher": 900,
      "doux": 901,
      "nouveau": 902,
      "bête": 903,
      "dra": 904,
      "jà": 905,
      "nul": 906,
      "pin": 907,
      "sorte": 908,
      "tort": 909,
      "seule": 910,
      "ches": 911,
      "chiens": 912,
      "songe": 913,
      "avis": 914,
      "all": 915,
      "crain": 916,
      "vieux": 917,
      "sert": 918,
      "hommes": 919,
      "agne": 920,
      "trouva": 921,
      "juge": 922,
      "voix": 923,
      "sembla": 924,
      "dent": 925,
      "dam": 926,
      "heur": 927,
      "hist": 928,
      "na": 929,
      "sse": 930,
      "èvre": 931,
      "enne": 932,
      "telle": 933,
      "très": 934,
      "parmi": 935,
      "passer": 936,
      "amis": 937,
      "cro": 938,
      "déjà": 939,
      "publi": 940,
      "mari": 941,
      "bruit": 942,
      "aucun": 943,
      "quatre": 944,
      "trésor": 945,
      "gre": 946,
      "har": 947,
      "mir": 948,
      "mér": 949,
      "aigle": 950,
      "quet": 951,
      "chasse": 952,
      "ass": 953,
      "ends": 954,
      "reste": 955,
      "quelqu": 956,
      "voyant": 957,
      "trouve": 958,
      "porter": 959,
      "grands": 960,
      "prix": 961,
      "chaque": 962,
      "premier": 963,
      "demeure": 964,
      "histoire": 965,
      "adieu": 966,
      "cl": 967,
      "foi": 968,
      "lent": 969,
      "mu": 970,
      "oeu": 971,
      "pens": 972,
      "ris": 973,
      "roit": 974,
      "reprit": 975,
      "ceau": 976,
      "tres": 977,
      "destin": 978,
      "aller": 979,
      "pourquoi": 980,
      "déli": 981,
      "pein": 982,
      "guerre": 983,
      "coeur": 984,
      "soins": 985,
      "dents": 986,
      "fût": 987,
      "ique": 988,
      "morte": 989,
      "pè": 990,
      "pai": 991,
      "pent": 992,
      "pot": 993,
      "deman": 994,
      "entôt": 995,
      "iste": 996,
      "croit": 997,
      "endroit": 998,
      "cieux": 999,
      "cheval": 1000,
      "messieurs": 1001,
      "enfant": 1002,
      "manger": 1003,
      "voyez": 1004,
      "sole": 1005,
      "tels": 1006,
      "pense": 1007,
      "avantage": 1008,
      "bientôt": 1009,
      "cès": 1010,
      "fo": 1011,
      "fille": 1012,
      "hi": 1013,
      "sc": 1014,
      "veu": 1015,
      "èle": 1016,
      "ane": 1017,
      "illa": 1018,
      "isse": 1019,
      "ation": 1020,
      "grande": 1021,
      "chemin": 1022,
      "oyen": 1023,
      "trouver": 1024,
      "humains": 1025,
      "objet": 1026,
      "commun": 1027,
      "semble": 1028,
      "exemple": 1029,
      "moment": 1030,
      "soleil": 1031,
      "cla": 1032,
      "dom": 1033,
      "mét": 1034,
      "meur": 1035,
      "ole": 1036,
      "pat": 1037,
      "tien": 1038,
      "âge": 1039,
      "remp": 1040,
      "reux": 1041,
      "illar": 1042,
      "selon": 1043,
      "pourtant": 1044,
      "die": 1045,
      "gri": 1046,
      "peau": 1047,
      "tantôt": 1048,
      "drait": 1049,
      "nuit": 1050,
      "juste": 1051,
      "tomb": 1052,
      "univers": 1053,
      "cause": 1054,
      "époux": 1055,
      "seulement": 1056,
      "ade": 1057,
      "bl": 1058,
      "doit": 1059,
      "fri": 1060,
      "hy": 1061,
      "rats": 1062,
      "vont": 1063,
      "êts": 1064,
      "ôte": 1065,
      "regard": 1066,
      "quelle": 1067,
      "lus": 1068,
      "sion": 1069,
      "sieur": 1070,
      "aver": 1071,
      "partit": 1072,
      "alla": 1073,
      "duc": 1074,
      "conte": 1075,
      "sera": 1076,
      "cess": 1077,
      "autrefois": 1078,
      "monsieur": 1079,
      "courir": 1080,
      "propre": 1081,
      "tire": 1082,
      "discours": 1083,
      "mainte": 1084,
      "rencontre": 1085,
      "cerf": 1086,
      "manière": 1087,
      "lég": 1088,
      "coups": 1089,
      "voulut": 1090,
      "obli": 1091,
      "elles": 1092,
      "esprits": 1093,
      "garde": 1094,
      "erreur": 1095,
      "............": 1096,
      "besoin": 1097,
      "lois": 1098,
      "nent": 1099,
      "nier": 1100,
      "pal": 1101,
      "ron": 1102,
      "rit": 1103,
      "rois": 1104,
      "sû": 1105,
      "ville": 1106,
      "pru": 1107,
      "partout": 1108,
      "sages": 1109,
      "vol": 1110,
      "gren": 1111,
      "suff": 1112,
      "autour": 1113,
      "coq": 1114,
      "extr": 1115,
      "léph": 1116,
      "sortir": 1117,
      "traits": 1118,
      "fontaine": 1119,
      "connais": 1120,
      "pays": 1121,
      "servir": 1122,
      "répon": 1123,
      "danger": 1124,
      "paix": 1125,
      "bu": 1126,
      "bât": 1127,
      "bord": 1128,
      "dét": 1129,
      "dir": 1130,
      "fav": 1131,
      "flat": 1132,
      "hôt": 1133,
      "jard": 1134,
      "mois": 1135,
      "nage": 1136,
      "pon": 1137,
      "pose": 1138,
      "tâ": 1139,
      "repartit": 1140,
      "onne": 1141,
      "demi": 1142,
      "queu": 1143,
      "sec": 1144,
      "euse": 1145,
      "chau": 1146,
      "ombre": 1147,
      "urent": 1148,
      "sir": 1149,
      "alou": 1150,
      "état": 1151,
      "plutôt": 1152,
      "suc": 1153,
      "biens": 1154,
      "gné": 1155,
      "guère": 1156,
      "malheureux": 1157,
      "tirer": 1158,
      "vieillar": 1159,
      "séjour": 1160,
      "nulle": 1161,
      "atta": 1162,
      "nécess": 1163,
      "ignor": 1164,
      "arrive": 1165,
      "lette": 1166,
      "hélas": 1167,
      "herbe": 1168,
      "extrême": 1169,
      "queue": 1170,
      "),": 1171,
      "davantage": 1172,
      "eaux": 1173,
      "hait": 1174,
      "has": 1175,
      "mil": 1176,
      "rir": 1177,
      "rendre": 1178,
      "sang": 1179,
      "vér": 1180,
      "ède": 1181,
      "ène": 1182,
      "ense": 1183,
      "arbre": 1184,
      "proie": 1185,
      "meun": 1186,
      "geance": 1187,
      "passé": 1188,
      "passant": 1189,
      "divers": 1190,
      "sul": 1191,
      "cier": 1192,
      "beaux": 1193,
      "profit": 1194,
      "malheur": 1195,
      "voyage": 1196,
      "bras": 1197,
      "sommes": 1198,
      "personne": 1199,
      "mouton": 1200,
      "illage": 1201,
      ".\"": 1202,
      "ah": 1203,
      "afin": 1204,
      "bau": 1205,
      "bons": 1206,
      "cur": 1207,
      "cul": 1208,
      "fam": 1209,
      "firent": 1210,
      "gale": 1211,
      "hor": 1212,
      "ja": 1213,
      "nour": 1214,
      "née": 1215,
      "sav": 1216,
      "sance": 1217,
      "tal": 1218,
      "teur": 1219,
      "œur": 1220,
      "ennu": 1221,
      "lets": 1222,
      "aide": 1223,
      "oise": 1224,
      "chait": 1225,
      "quere": 1226,
      "inaire": 1227,
      "meil": 1228,
      "parler": 1229,
      "attr": 1230,
      "ateur": 1231,
      "desc": 1232,
      "crier": 1233,
      "montre": 1234,
      "gner": 1235,
      "plaire": 1236,
      "quelquefois": 1237,
      "frère": 1238,
      "ages": 1239,
      "voulait": 1240,
      "mets": 1241,
      "certaine": 1242,
      "ordinaire": 1243,
      "souhait": 1244,
      "import": 1245,
      "conna": 1246,
      "suiv": 1247,
      "bis": 1248,
      "can": 1249,
      "cure": 1250,
      "gt": 1251,
      "ions": 1252,
      "lè": 1253,
      "mée": 1254,
      "oh": 1255,
      "ode": 1256,
      "sat": 1257,
      "tait": 1258,
      "âte": 1259,
      "œurs": 1260,
      "envie": 1261,
      "aujour": 1262,
      "triste": 1263,
      "simp": 1264,
      "parle": 1265,
      "lièvre": 1266,
      "voleurs": 1267,
      "cris": 1268,
      "endait": 1269,
      "vivre": 1270,
      "sup": 1271,
      "mala": 1272,
      "madame": 1273,
      "cesse": 1274,
      "faite": 1275,
      "monar": 1276,
      "bec": 1277,
      "propos": 1278,
      "emport": 1279,
      "voulez": 1280,
      "loups": 1281,
      "hui": 1282,
      "tours": 1283,
      "faisant": 1284,
      "source": 1285,
      "plaît": 1286,
      "pouvait": 1287,
      "gloire": 1288,
      "effort": 1289,
      "mourir": 1290,
      "étrang": 1291,
      "conseil": 1292,
      "aperç": 1293,
      "ennemi": 1294,
      "mortel": 1295,
      "léphant": 1296,
      "vieillard": 1297,
      "meunier": 1298,
      "aujourd": 1299,
      "ate": 1300,
      "côt": 1301,
      "eh": 1302,
      "hon": 1303,
      "ice": 1304,
      "image": 1305,
      "joie": 1306,
      "mait": 1307,
      "moit": 1308,
      "mite": 1309,
      "moyen": 1310,
      "ras": 1311,
      "ram": 1312,
      "rap": 1313,
      "village": 1314,
      "écou": 1315,
      "ûte": 1316,
      "ange": 1317,
      "jeun": 1318,
      "ains": 1319,
      "viv": 1320,
      "défaut": 1321,
      "suit": 1322,
      "serpent": 1323,
      "iller": 1324,
      "récit": 1325,
      "tion": 1326,
      "mange": 1327,
      "race": 1328,
      "fran": 1329,
      "voul": 1330,
      "moindre": 1331,
      "brebis": 1332,
      "double": 1333,
      "voie": 1334,
      "prise": 1335,
      "traite": 1336,
      "penser": 1337,
      "tombe": 1338,
      "tenir": 1339,
      "première": 1340,
      "goût": 1341,
      "champs": 1342,
      "adresse": 1343,
      "oreilles": 1344,
      "maudit": 1345,
      "héros": 1346,
      "presque": 1347,
      "troupeau": 1348,
      "ouvrage": 1349,
      "différ": 1350,
      "hasard": 1351,
      "querelle": 1352,
      "ach": 1353,
      "cab": 1354,
      "dence": 1355,
      "feu": 1356,
      "fallait": 1357,
      "ise": 1358,
      "lot": 1359,
      "mons": 1360,
      "rés": 1361,
      "tér": 1362,
      "tiens": 1363,
      "ude": 1364,
      "vaux": 1365,
      "vaut": 1366,
      "vage": 1367,
      "xe": 1368,
      "çons": 1369,
      "ép": 1370,
      "repas": 1371,
      "det": 1372,
      "chap": 1373,
      "ingr": 1374,
      "inter": 1375,
      "aisé": 1376,
      "trans": 1377,
      "duit": 1378,
      "pourrait": 1379,
      "irait": 1380,
      "lier": 1381,
      "combat": 1382,
      "acle": 1383,
      "profon": 1384,
      "mble": 1385,
      "voyait": 1386,
      "oyez": 1387,
      "vite": 1388,
      "commune": 1389,
      "merve": 1390,
      "certains": 1391,
      "place": 1392,
      "pied": 1393,
      "occu": 1394,
      "change": 1395,
      "changer": 1396,
      "arrê": 1397,
      "effet": 1398,
      "mauvais": 1399,
      "plainte": 1400,
      ";;;;": 1401,
      "campa": 1402,
      "chasseur": 1403,
      "demande": 1404,
      "folie": 1405,
      ".............": 1406,
      "grenou": 1407,
      "jardin": 1408,
      "bit": 1409,
      "cre": 1410,
      "dons": 1411,
      "far": 1412,
      "fat": 1413,
      "fus": 1414,
      "fasse": 1415,
      "faim": 1416,
      "gas": 1417,
      "hôte": 1418,
      "nô": 1419,
      "oles": 1420,
      "pât": 1421,
      "ront": 1422,
      "sal": 1423,
      "test": 1424,
      "ymp": 1425,
      "âtre": 1426,
      "émon": 1427,
      "îte": 1428,
      "aime": 1429,
      "dedans": 1430,
      "etait": 1431,
      "sez": 1432,
      "sein": 1433,
      "arade": 1434,
      "choi": 1435,
      "chas": 1436,
      "invent": 1437,
      "tran": 1438,
      "dure": 1439,
      "livre": 1440,
      "ament": 1441,
      "sut": 1442,
      "mach": 1443,
      "faites": 1444,
      "oses": 1445,
      "ésope": 1446,
      "rire": 1447,
      "courrou": 1448,
      "temple": 1449,
      "empê": 1450,
      "douce": 1451,
      "cule": 1452,
      "pitié": 1453,
      "donna": 1454,
      "tomber": 1455,
      "nouvelle": 1456,
      "façon": 1457,
      "pareils": 1458,
      "compagnon": 1459,
      "compagnons": 1460,
      "champ": 1461,
      "vingt": 1462,
      "écrit": 1463,
      "mouche": 1464,
      "croyait": 1465,
      "ouvert": 1466,
      "semblable": 1467,
      "oeuf": 1468,
      "palais": 1469,
      "volont": 1470,
      "jadis": 1471,
      "meilleur": 1472,
      "moitié": 1473,
      "bor": 1474,
      "bres": 1475,
      "bats": 1476,
      "cir": 1477,
      "dant": 1478,
      "fous": 1479,
      "ide": 1480,
      "lis": 1481,
      "pt": 1482,
      "pous": 1483,
      "pli": 1484,
      "pire": 1485,
      "rons": 1486,
      "soir": 1487,
      "savoir": 1488,
      "tard": 1489,
      "tint": 1490,
      "yer": 1491,
      "élo": 1492,
      "rem": 1493,
      "demain": 1494,
      "aurais": 1495,
      "autru": 1496,
      "oisi": 1497,
      "sier": 1498,
      "ience": 1499,
      "jean": 1500,
      "allez": 1501,
      "étonn": 1502,
      "conter": 1503,
      "amant": 1504,
      "apprendre": 1505,
      "faits": 1506,
      "ffe": 1507,
      "auté": 1508,
      "auteur": 1509,
      "mine": 1510,
      "accor": 1511,
      "perdu": 1512,
      "moine": 1513,
      "disant": 1514,
      "vieille": 1515,
      "cuis": 1516,
      "intér": 1517,
      "sol": 1518,
      "femmes": 1519,
      "prends": 1520,
      "appét": 1521,
      "appelle": 1522,
      "gén": 1523,
      "pouvoir": 1524,
      "demand": 1525,
      "laissez": 1526,
      "oreille": 1527,
      "créat": 1528,
      "camarade": 1529,
      "voisinage": 1530,
      "moutons": 1531,
      "colère": 1532,
      "sûr": 1533,
      "nécessaire": 1534,
      "baudet": 1535,
      "monarque": 1536,
      "alar": 1537,
      "bé": 1538,
      "cat": 1539,
      "cli": 1540,
      "couv": 1541,
      "dirent": 1542,
      "eil": 1543,
      "fal": 1544,
      "fier": 1545,
      "fure": 1546,
      "fables": 1547,
      "ieux": 1548,
      "mê": 1549,
      "pes": 1550,
      "pois": 1551,
      "pap": 1552,
      "rage": 1553,
      "roy": 1554,
      "ronde": 1555,
      "sée": 1556,
      "tis": 1557,
      "yth": 1558,
      "ysse": 1559,
      "écar": 1560,
      "în": 1561,
      "endez": 1562,
      "aie": 1563,
      "ités": 1564,
      "aurai": 1565,
      "etier": 1566,
      "illon": 1567,
      "lam": 1568,
      "entour": 1569,
      "secours": 1570,
      "chi": 1571,
      "chère": 1572,
      "oris": 1573,
      "nement": 1574,
      "prê": 1575,
      "prie": 1576,
      "tron": 1577,
      "siè": 1578,
      "parut": 1579,
      "parti": 1580,
      "atte": 1581,
      "dus": 1582,
      "consi": 1583,
      "condam": 1584,
      "croire": 1585,
      "sub": 1586,
      "utile": 1587,
      "belette": 1588,
      "gnée": 1589,
      "rie": 1590,
      "accour": 1591,
      "procès": 1592,
      "iez": 1593,
      "rare": 1594,
      "rages": 1595,
      "avecque": 1596,
      "frères": 1597,
      "ulysse": 1598,
      "emporte": 1599,
      "empire": 1600,
      "venez": 1601,
      "agit": 1602,
      "juger": 1603,
      "quoique": 1604,
      "loger": 1605,
      "doute": 1606,
      "laisser": 1607,
      "attend": 1608,
      "devait": 1609,
      "misér": 1610,
      "possé": 1611,
      "charge": 1612,
      "dernier": 1613,
      "mena": 1614,
      "bassa": 1615,
      "jouir": 1616,
      "olymp": 1617,
      "travail": 1618,
      "tromper": 1619,
      "faute": 1620,
      "matin": 1621,
      "œuf": 1622,
      "embarr": 1623,
      "lorsque": 1624,
      "retourne": 1625,
      "publique": 1626,
      "oblige": 1627,
      "ignorant": 1628,
      "savetier": 1629,
      "malade": 1630,
      "machine": 1631,
      "courroux": 1632,
      "autrui": 1633,
      "fallut": 1634,
      "fureur": 1635,
      "are": 1636,
      "agré": 1637,
      "bâ": 1638,
      "bar": 1639,
      "bus": 1640,
      "bauc": 1641,
      "blan": 1642,
      "cis": 1643,
      "coin": 1644,
      "cér": 1645,
      "dau": 1646,
      "doi": 1647,
      "dait": 1648,
      "fe": 1649,
      "fil": 1650,
      "fest": 1651,
      "forte": 1652,
      "hir": 1653,
      "jest": 1654,
      "oph": 1655,
      "pier": 1656,
      "pût": 1657,
      "pleurs": 1658,
      "sor": 1659,
      "sain": 1660,
      "savait": 1661,
      "sout": 1662,
      "sants": 1663,
      "soyez": 1664,
      "taire": 1665,
      "yr": 1666,
      "ouï": 1667,
      "reç": 1668,
      "depuis": 1669,
      "deven": 1670,
      "ermite": 1671,
      "esope": 1672,
      "lapin": 1673,
      "secon": 1674,
      "chants": 1675,
      "choses": 1676,
      "isans": 1677,
      "prêt": 1678,
      "assur": 1679,
      "aveu": 1680,
      "para": 1681,
      "dessein": 1682,
      "alité": 1683,
      "duire": 1684,
      "conc": 1685,
      "cons": 1686,
      "dites": 1687,
      "craign": 1688,
      "dise": 1689,
      "plut": 1690,
      "déch": 1691,
      "gras": 1692,
      "sure": 1693,
      "super": 1694,
      "majest": 1695,
      "appar": 1696,
      "surtout": 1697,
      "accou": 1698,
      "courage": 1699,
      "oirs": 1700,
      "vert": 1701,
      "perte": 1702,
      "tants": 1703,
      "malgré": 1704,
      "plaign": 1705,
      "corbeau": 1706,
      "cherche": 1707,
      "frais": 1708,
      "trouvant": 1709,
      "humeur": 1710,
      "nue": 1711,
      "commen": 1712,
      "forme": 1713,
      "morts": 1714,
      "amours": 1715,
      "voisins": 1716,
      "pauvres": 1717,
      "sauver": 1718,
      "poser": 1719,
      "tenait": 1720,
      "pique": 1721,
      "pige": 1722,
      "compagnie": 1723,
      "ondelle": 1724,
      "longtemps": 1725,
      "gogne": 1726,
      "fourn": 1727,
      "écri": 1728,
      "galant": 1729,
      "contraire": 1730,
      "troupe": 1731,
      "œufs": 1732,
      "semblables": 1733,
      "mérite": 1734,
      "métier": 1735,
      "hôtes": 1736,
      "secret": 1737,
      "nourris": 1738,
      "simple": 1739,
      "mortels": 1740,
      "rapport": 1741,
      "olympe": 1742,
      "baucis": 1743,
      "hirondelle": 1744,
      ".»": 1745,
      "bal": 1746,
      "bri": 1747,
      "blé": 1748,
      "cle": 1749,
      "cin": 1750,
      "cité": 1751,
      "dî": 1752,
      "dil": 1753,
      "dur": 1754,
      "dos": 1755,
      "drais": 1756,
      "fé": 1757,
      "fle": 1758,
      "fre": 1759,
      "filles": 1760,
      "gage": 1761,
      "gret": 1762,
      "igne": 1763,
      "jon": 1764,
      "jeux": 1765,
      "lâ": 1766,
      "net": 1767,
      "pan": 1768,
      "pun": 1769,
      "rob": 1770,
      "tend": 1771,
      "uil": 1772,
      "ures": 1773,
      "ves": 1774,
      "vas": 1775,
      "çonn": 1776,
      "évit": 1777,
      "éloi": 1778,
      "éléphant": 1779,
      "oubli": 1780,
      "reur": 1781,
      "recu": 1782,
      "revient": 1783,
      "représent": 1784,
      "deur": 1785,
      "qué": 1786,
      "quis": 1787,
      "erne": 1788,
      "escar": 1789,
      "espè": 1790,
      "auri": 1791,
      "aura": 1792,
      "entend": 1793,
      "entends": 1794,
      "chats": 1795,
      "tement": 1796,
      "cep": 1797,
      "incon": 1798,
      "inno": 1799,
      "omage": 1800,
      "trat": 1801,
      "train": 1802,
      "avan": 1803,
      "paroles": 1804,
      "ali": 1805,
      "allé": 1806,
      "sac": 1807,
      "conf": 1808,
      "amou": 1809,
      "combien": 1810,
      "compère": 1811,
      "vivant": 1812,
      "déesse": 1813,
      "grain": 1814,
      "suite": 1815,
      "appu": 1816,
      "abat": 1817,
      "ossi": 1818,
      "bel": 1819,
      "belles": 1820,
      "rix": 1821,
      "prof": 1822,
      "provin": 1823,
      "progné": 1824,
      "cornes": 1825,
      "terri": 1826,
      "puisse": 1827,
      "puissant": 1828,
      "front": 1829,
      "fruit": 1830,
      "fromage": 1831,
      "empl": 1832,
      "raisonn": 1833,
      "brou": 1834,
      "bran": 1835,
      "instant": 1836,
      "oyens": 1837,
      "longu": 1838,
      "méde": 1839,
      "voulant": 1840,
      "bref": 1841,
      "dront": 1842,
      "justi": 1843,
      "chatte": 1844,
      "affaires": 1845,
      "poule": 1846,
      "saison": 1847,
      "nombre": 1848,
      "arriva": 1849,
      "aucune": 1850,
      "pareil": 1851,
      "grâces": 1852,
      "quitter": 1853,
      "promet": 1854,
      "tribut": 1855,
      "viendra": 1856,
      "morceau": 1857,
      "vraiment": 1858,
      "prenait": 1859,
      "prenez": 1860,
      "perdrix": 1861,
      "gagner": 1862,
      "agneau": 1863,
      "peintre": 1864,
      "hibou": 1865,
      "bâton": 1866,
      "satis": 1867,
      "arrêter": 1868,
      "campagne": 1869,
      "appétit": 1870,
      "considé": 1871,
      "majesté": 1872,
      "espèce": 1873,
      "bais": 1874,
      "boire": 1875,
      "bêtes": 1876,
      "bœuf": 1877,
      "cus": 1878,
      "cœur": 1879,
      "dèle": 1880,
      "fai": 1881,
      "fête": 1882,
      "gor": 1883,
      "hors": 1884,
      "hale": 1885,
      "joi": 1886,
      "lée": 1887,
      "lang": 1888,
      "més": 1889,
      "maine": 1890,
      "nor": 1891,
      "olo": 1892,
      "pis": 1893,
      "page": 1894,
      "pâtre": 1895,
      "rant": 1896,
      "savez": 1897,
      "tand": 1898,
      "tés": 1899,
      "table": 1900,
      "user": 1901,
      "uve": 1902,
      "van": 1903,
      "vue": 1904,
      "ça": 1905,
      "enc": 1906,
      "enle": 1907,
      "ensemble": 1908,
      "engeance": 1909,
      "leçon": 1910,
      "retraite": 1911,
      "regret": 1912,
      "devient": 1913,
      "quait": 1914,
      "quart": 1915,
      "itable": 1916,
      "auraient": 1917,
      "illus": 1918,
      "ente": 1919,
      "seur": 1920,
      "armes": 1921,
      "chés": 1922,
      "prête": 1923,
      "assi": 1924,
      "troisi": 1925,
      "sien": 1926,
      "sine": 1927,
      "siens": 1928,
      "esti": 1929,
      "ave": 1930,
      "avare": 1931,
      "parents": 1932,
      "ath": 1933,
      "étendu": 1934,
      "consul": 1935,
      "amin": 1936,
      "eurent": 1937,
      "dix": 1938,
      "vice": 1939,
      "désir": 1940,
      "cile": 1941,
      "mag": 1942,
      "seront": 1943,
      "servit": 1944,
      "chef": 1945,
      "chevaux": 1946,
      "osoph": 1947,
      "gneux": 1948,
      "plan": 1949,
      "ards": 1950,
      "cherch": 1951,
      "renom": 1952,
      "exer": 1953,
      "excu": 1954,
      "veau": 1955,
      "assemb": 1956,
      "froi": 1957,
      "nière": 1958,
      "raisons": 1959,
      "venait": 1960,
      "vengeance": 1961,
      "instru": 1962,
      "oyer": 1963,
      "trouvait": 1964,
      "longue": 1965,
      "mépris": 1966,
      "méchants": 1967,
      "humble": 1968,
      "laissa": 1969,
      "soeur": 1970,
      "gnez": 1971,
      "commère": 1972,
      "merci": 1973,
      "mercure": 1974,
      "senti": 1975,
      "charmes": 1976,
      "chargé": 1977,
      "fera": 1978,
      "heureuse": 1979,
      "saurait": 1980,
      "princi": 1981,
      "plat": 1982,
      "gardez": 1983,
      "occas": 1984,
      "tenez": 1985,
      "appli": 1986,
      "airs": 1987,
      "piè": 1988,
      "pareille": 1989,
      "pareilles": 1990,
      "courtisans": 1991,
      "quitte": 1992,
      "impru": 1993,
      "langue": 1994,
      "rome": 1995,
      "travers": 1996,
      "périt": 1997,
      "soupir": 1998,
      "personnes": 1999,
      "galand": 2000,
      "contenter": 2001,
      "cruelle": 2002,
      "philémon": 2003,
      "philosoph": 2004,
      "bourse": 2005,
      "approche": 2006,
      "sty": 2007,
      "allaient": 2008,
      "haran": 2009,
      "mérit": 2010,
      "peines": 2011,
      "veuve": 2012,
      "grandeur": 2013,
      "griffe": 2014,
      "frivo": 2015,
      "alouette": 2016,
      "milan": 2017,
      "vérité": 2018,
      "talent": 2019,
      "oiseaux": 2020,
      "attrap": 2021,
      "côtés": 2022,
      "écouter": 2023,
      "térée": 2024,
      "occup": 2025,
      "nôtre": 2026,
      "créature": 2027,
      "embarras": 2028,
      "langage": 2029,
      "tandis": 2030,
      "troisième": 2031,
      "bab": 2032,
      "couvert": 2033,
      "dout": 2034,
      "fie": 2035,
      "furent": 2036,
      "flam": 2037,
      "gou": 2038,
      "gée": 2039,
      "gout": 2040,
      "jeu": 2041,
      "jalou": 2042,
      "ly": 2043,
      "lons": 2044,
      "lér": 2045,
      "mien": 2046,
      "mment": 2047,
      "muse": 2048,
      "niers": 2049,
      "pê": 2050,
      "poi": 2051,
      "pom": 2052,
      "pleur": 2053,
      "ry": 2054,
      "rus": 2055,
      "saut": 2056,
      "sœur": 2057,
      "tan": 2058,
      "tap": 2059,
      "toit": 2060,
      "tonn": 2061,
      "usage": 2062,
      "vir": 2063,
      "vend": 2064,
      "vins": 2065,
      "vendre": 2066,
      "vents": 2067,
      "vaine": 2068,
      "zé": 2069,
      "ées": 2070,
      "épar": 2071,
      "équi": 2072,
      "envers": 2073,
      "oui": 2074,
      "repos": 2075,
      "aimer": 2076,
      "aider": 2077,
      "quent": 2078,
      "quête": 2079,
      "anc": 2080,
      "ances": 2081,
      "itié": 2082,
      "espér": 2083,
      "unt": 2084,
      "lacs": 2085,
      "arts": 2086,
      "cheur": 2087,
      "chois": 2088,
      "chang": 2089,
      "chèvre": 2090,
      "ceaux": 2091,
      "orage": 2092,
      "orph": 2093,
      "antre": 2094,
      "isan": 2095,
      "indi": 2096,
      "asile": 2097,
      "truit": 2098,
      "tration": 2099,
      "songer": 2100,
      "six": 2101,
      "allant": 2102,
      "éti": 2103,
      "étais": 2104,
      "étend": 2105,
      "lire": 2106,
      "livres": 2107,
      "amen": 2108,
      "ambassa": 2109,
      "amitié": 2110,
      "crite": 2111,
      "crate": 2112,
      "diable": 2113,
      "plupart": 2114,
      "ouvrages": 2115,
      "serre": 2116,
      "aires": 2117,
      "surpris": 2118,
      "andre": 2119,
      "beauté": 2120,
      "gnes": 2121,
      "gnait": 2122,
      "ressort": 2123,
      "rière": 2124,
      "act": 2125,
      "proch": 2126,
      "pec": 2127,
      "guet": 2128,
      "donné": 2129,
      "coût": 2130,
      "moire": 2131,
      "corde": 2132,
      "république": 2133,
      "tions": 2134,
      "enfer": 2135,
      "chers": 2136,
      "puisque": 2137,
      "ray": 2138,
      "emploi": 2139,
      "voyag": 2140,
      "bramin": 2141,
      "voulu": 2142,
      "douleur": 2143,
      "huître": 2144,
      "porté": 2145,
      "portait": 2146,
      "valets": 2147,
      "partir": 2148,
      "faisaient": 2149,
      "témoin": 2150,
      "jusques": 2151,
      "attir": 2152,
      "solit": 2153,
      "forêts": 2154,
      "souci": 2155,
      "devint": 2156,
      "petite": 2157,
      "figu": 2158,
      "ferait": 2159,
      "semblait": 2160,
      "derniers": 2161,
      "importe": 2162,
      "facile": 2163,
      "premiers": 2164,
      "chanter": 2165,
      "bouche": 2166,
      "sots": 2167,
      "écla": 2168,
      "fourmi": 2169,
      "arrête": 2170,
      "compter": 2171,
      "louis": 2172,
      "travaille": 2173,
      "soupçonn": 2174,
      "personnage": 2175,
      "plaisirs": 2176,
      "trésors": 2177,
      "sujets": 2178,
      "fuir": 2179,
      "prétend": 2180,
      "croyez": 2181,
      "souffrir": 2182,
      "matière": 2183,
      "ouvrit": 2184,
      "robe": 2185,
      "défendre": 2186,
      "tortue": 2187,
      "pensée": 2188,
      "délicat": 2189,
      "pèler": 2190,
      "folle": 2191,
      "patte": 2192,
      "légère": 2193,
      "sagesse": 2194,
      "suffit": 2195,
      "coqs": 2196,
      "dira": 2197,
      "hôtesse": 2198,
      "tâche": 2199,
      "attraper": 2200,
      "importun": 2201,
      "connaître": 2202,
      "connaît": 2203,
      "âteau": 2204,
      "efforts": 2205,
      "vouloir": 2206,
      "aisément": 2207,
      "gascon": 2208,
      "salaire": 2209,
      "choix": 2210,
      "intérêt": 2211,
      "sold": 2212,
      "alarme": 2213,
      "siècle": 2214,
      "festin": 2215,
      "écria": 2216,
      "allégu": 2217,
      "amoureux": 2218,
      "haleine": 2219,
      "illustration": 2220,
      "équipage": 2221,
      "16": 2222,
      "ache": 2223,
      "ager": 2224,
      "cen": 2225,
      "coi": 2226,
      "dois": 2227,
      "dres": 2228,
      "fâ": 2229,
      "faux": 2230,
      "fleurs": 2231,
      "gi": 2232,
      "gâ": 2233,
      "gir": 2234,
      "gère": 2235,
      "gence": 2236,
      "gîte": 2237,
      "haine": 2238,
      "jur": 2239,
      "meu": 2240,
      "mur": 2241,
      "mand": 2242,
      "mât": 2243,
      "nant": 2244,
      "nais": 2245,
      "nus": 2246,
      "oeil": 2247,
      "por": 2248,
      "pont": 2249,
      "poir": 2250,
      "ppe": 2251,
      "rée": 2252,
      "scé": 2253,
      "strat": 2254,
      "tar": 2255,
      "tor": 2256,
      "taille": 2257,
      "vul": 2258,
      "yait": 2259,
      "èvres": 2260,
      "ég": 2261,
      "éve": 2262,
      "écu": 2263,
      "égale": 2264,
      "ôle": 2265,
      "endit": 2266,
      "reaux": 2267,
      "rets": 2268,
      "revien": 2269,
      "reviens": 2270,
      "retire": 2271,
      "ailes": 2272,
      "aima": 2273,
      "devoir": 2274,
      "queur": 2275,
      "ancier": 2276,
      "este": 2277,
      "escla": 2278,
      "seaux": 2279,
      "eus": 2280,
      "chéti": 2281,
      "cel": 2282,
      "inqui": 2283,
      "inutile": 2284,
      "prouv": 2285,
      "prier": 2286,
      "tremb": 2287,
      "omèle": 2288,
      "trous": 2289,
      "simon": 2290,
      "siez": 2291,
      "avais": 2292,
      "parla": 2293,
      "parent": 2294,
      "parts": 2295,
      "parlez": 2296,
      "parole": 2297,
      "geois": 2298,
      "alli": 2299,
      "sacri": 2300,
      "étour": 2301,
      "étab": 2302,
      "pourvu": 2303,
      "quicon": 2304,
      "conso": 2305,
      "passa": 2306,
      "passion": 2307,
      "ambit": 2308,
      "voleur": 2309,
      "compl": 2310,
      "vict": 2311,
      "déses": 2312,
      "détru": 2313,
      "dépens": 2314,
      "débats": 2315,
      "grimp": 2316,
      "cigogne": 2317,
      "magis": 2318,
      "seraient": 2319,
      "apol": 2320,
      "abon": 2321,
      "aband": 2322,
      "pute": 2323,
      "puits": 2324,
      "acci": 2325,
      "accu": 2326,
      "projet": 2327,
      "propose": 2328,
      "érir": 2329,
      "pect": 2330,
      "guise": 2331,
      "verse": 2332,
      "verra": 2333,
      "ots": 2334,
      "coch": 2335,
      "plon": 2336,
      "plaise": 2337,
      "enfuit": 2338,
      "cheron": 2339,
      "puisqu": 2340,
      "renvoy": 2341,
      "rencontr": 2342,
      "mars": 2343,
      "marche": 2344,
      "tempér": 2345,
      "manquer": 2346,
      "nid": 2347,
      "venant": 2348,
      "voyons": 2349,
      "agème": 2350,
      "mémoire": 2351,
      "pleure": 2352,
      "maîtres": 2353,
      "humain": 2354,
      "portant": 2355,
      "partie": 2356,
      "fini": 2357,
      "faisons": 2358,
      "témoi": 2359,
      "attendre": 2360,
      "larron": 2361,
      "souver": 2362,
      "donnait": 2363,
      "poulets": 2364,
      "tenant": 2365,
      "traître": 2366,
      "marché": 2367,
      "arriv": 2368,
      "pouvez": 2369,
      "miner": 2370,
      "payer": 2371,
      "habile": 2372,
      "honnête": 2373,
      "présents": 2374,
      "suivre": 2375,
      "seigneurs": 2376,
      "offre": 2377,
      "offrir": 2378,
      "office": 2379,
      "compte": 2380,
      "mouches": 2381,
      "prétends": 2382,
      "bergers": 2383,
      "hérit": 2384,
      "étrange": 2385,
      "illons": 2386,
      "philomèle": 2387,
      "bourgeois": 2388,
      "cteur": 2389,
      "dormait": 2390,
      "hercule": 2391,
      "aimait": 2392,
      "cria": 2393,
      "nager": 2394,
      "grec": 2395,
      "grecs": 2396,
      "miroirs": 2397,
      "assis": 2398,
      "mulet": 2399,
      "remplit": 2400,
      "justement": 2401,
      "tomba": 2402,
      "hymen": 2403,
      "sûre": 2404,
      "enseigne": 2405,
      "souhaits": 2406,
      "lève": 2407,
      "aperçut": 2408,
      "profonde": 2409,
      "merveille": 2410,
      "merveilles": 2411,
      "grenouille": 2412,
      "grenouilles": 2413,
      "volontiers": 2414,
      "remède": 2415,
      "cuisine": 2416,
      "aveugle": 2417,
      "superf": 2418,
      "vertus": 2419,
      "escarb": 2420,
      "province": 2421,
      "justice": 2422,
      "ologue": 2423,
      "vanité": 2424,
      "encens": 2425,
      "occasion": 2426,
      "tapis": 2427,
      "zéph": 2428,
      "scélér": 2429,
      "stratagème": 2430,
      "quiconque": 2431,
      "victoire": 2432,
      "apollon": 2433,
      "\".": 2434,
      "bande": 2435,
      "cous": 2436,
      "cap": 2437,
      "cés": 2438,
      "cins": 2439,
      "clar": 2440,
      "cède": 2441,
      "cœurs": 2442,
      "din": 2443,
      "doc": 2444,
      "eléphant": 2445,
      "fen": 2446,
      "fleur": 2447,
      "fab": 2448,
      "fré": 2449,
      "fins": 2450,
      "flot": 2451,
      "gen": 2452,
      "gour": 2453,
      "gain": 2454,
      "gie": 2455,
      "hos": 2456,
      "id": 2457,
      "iqu": 2458,
      "ient": 2459,
      "ifi": 2460,
      "imag": 2461,
      "joint": 2462,
      "jure": 2463,
      "lun": 2464,
      "lour": 2465,
      "lance": 2466,
      "mut": 2467,
      "mul": 2468,
      "noir": 2469,
      "nette": 2470,
      "pain": 2471,
      "rh": 2472,
      "ran": 2473,
      "rav": 2474,
      "sés": 2475,
      "sœurs": 2476,
      "tte": 2477,
      "tur": 2478,
      "tendre": 2479,
      "yst": 2480,
      "zon": 2481,
      "ânes": 2482,
      "éle": 2483,
      "éco": 2484,
      "envoy": 2485,
      "enseign": 2486,
      "envir": 2487,
      "leçons": 2488,
      "outre": 2489,
      "outr": 2490,
      "reine": 2491,
      "revenir": 2492,
      "deau": 2493,
      "quence": 2494,
      "annon": 2495,
      "erai": 2496,
      "auprès": 2497,
      "aurez": 2498,
      "autels": 2499,
      "ets": 2500,
      "ettes": 2501,
      "illé": 2502,
      "ilité": 2503,
      "entes": 2504,
      "entra": 2505,
      "arice": 2506,
      "chê": 2507,
      "chou": 2508,
      "chée": 2509,
      "château": 2510,
      "issait": 2511,
      "inet": 2512,
      "prême": 2513,
      "urie": 2514,
      "memb": 2515,
      "lumi": 2516,
      "tré": 2517,
      "trand": 2518,
      "avarice": 2519,
      "parque": 2520,
      "parlait": 2521,
      "alier": 2522,
      "due": 2523,
      "say": 2524,
      "salut": 2525,
      "étonne": 2526,
      "cont": 2527,
      "contes": 2528,
      "contin": 2529,
      "libre": 2530,
      "liber": 2531,
      "liers": 2532,
      "amé": 2533,
      "amorph": 2534,
      "dition": 2535,
      "voler": 2536,
      "digne": 2537,
      "divin": 2538,
      "plusieurs": 2539,
      "ouvre": 2540,
      "vière": 2541,
      "désert": 2542,
      "suprême": 2543,
      "servi": 2544,
      "server": 2545,
      "bienfait": 2546,
      "peuvent": 2547,
      "rique": 2548,
      "accomm": 2549,
      "courait": 2550,
      "courant": 2551,
      "proph": 2552,
      "profond": 2553,
      "guill": 2554,
      "perdre": 2555,
      "perfi": 2556,
      "coûte": 2557,
      "réve": 2558,
      "puissance": 2559,
      "bonheur": 2560,
      "carrière": 2561,
      "manque": 2562,
      "manant": 2563,
      "ecou": 2564,
      "emplois": 2565,
      "venger": 2566,
      "agir": 2567,
      "entrer": 2568,
      "médi": 2569,
      "pleine": 2570,
      "voudrais": 2571,
      "loge": 2572,
      "dru": 2573,
      "drôle": 2574,
      "douc": 2575,
      "sortes": 2576,
      "tourne": 2577,
      "laiss": 2578,
      "partage": 2579,
      "voisine": 2580,
      "jette": 2581,
      "affli": 2582,
      "témoins": 2583,
      "attent": 2584,
      "soci": 2585,
      "anges": 2586,
      "toutefois": 2587,
      "renards": 2588,
      "forêt": 2589,
      "sentant": 2590,
      "large": 2591,
      "larmes": 2592,
      "bertrand": 2593,
      "misère": 2594,
      "posses": 2595,
      "ferai": 2596,
      "impossi": 2597,
      "préf": 2598,
      "saurais": 2599,
      "sauvage": 2600,
      "ailleurs": 2601,
      "raton": 2602,
      "printemps": 2603,
      "capri": 2604,
      "seuls": 2605,
      "apporte": 2606,
      "trafi": 2607,
      "face": 2608,
      "moque": 2609,
      "pouvant": 2610,
      "chantait": 2611,
      "honneurs": 2612,
      "lettes": 2613,
      "sotte": 2614,
      "promp": 2615,
      "prompt": 2616,
      "suivi": 2617,
      "écl": 2618,
      "chambre": 2619,
      "donnez": 2620,
      "compli": 2621,
      "servant": 2622,
      "glout": 2623,
      "vienne": 2624,
      "morale": 2625,
      "péril": 2626,
      "plaindre": 2627,
      "prétendait": 2628,
      "grosse": 2629,
      "contrain": 2630,
      "faudra": 2631,
      "faudrait": 2632,
      "exemples": 2633,
      "dormir": 2634,
      "présente": 2635,
      "échap": 2636,
      "ouvrir": 2637,
      "moments": 2638,
      "sommeil": 2639,
      "tircis": 2640,
      "épouse": 2641,
      "troub": 2642,
      "défunt": 2643,
      "craint": 2644,
      "crainte": 2645,
      "craindre": 2646,
      "ennemis": 2647,
      "croquant": 2648,
      "hardi": 2649,
      "oeufs": 2650,
      "potage": 2651,
      "endroits": 2652,
      "science": 2653,
      "tienne": 2654,
      "remplis": 2655,
      "blés": 2656,
      "avertir": 2657,
      "connaissance": 2658,
      "bords": 2659,
      "détour": 2660,
      "favoris": 2661,
      "flatteur": 2662,
      "chauve": 2663,
      "véritable": 2664,
      "montrer": 2665,
      "suivez": 2666,
      "odeur": 2667,
      "honte": 2668,
      "franç": 2669,
      "maudite": 2670,
      "monstre": 2671,
      "ingrats": 2672,
      "fati": 2673,
      "inventé": 2674,
      "éloge": 2675,
      "étonné": 2676,
      "poissons": 2677,
      "royau": 2678,
      "înt": 2679,
      "accourut": 2680,
      "misérable": 2681,
      "possédait": 2682,
      "menace": 2683,
      "barbe": 2684,
      "dauph": 2685,
      "pierre": 2686,
      "second": 2687,
      "déchire": 2688,
      "fournit": 2689,
      "dîné": 2690,
      "dili": 2691,
      "éviter": 2692,
      "innocent": 2693,
      "médecins": 2694,
      "renommée": 2695,
      "froid": 2696,
      "styx": 2697,
      "frivoles": 2698,
      "figure": 2699,
      "soldat": 2700,
      "escarbot": 2701,
      "fenêtre": 2702,
      "lumière": 2703,
      ").": 2704,
      "aï": 2705,
      "agr": 2706,
      "ba": 2707,
      "blon": 2708,
      "batt": 2709,
      "bad": 2710,
      "boeufs": 2711,
      "cy": 2712,
      "cère": 2713,
      "cage": 2714,
      "cense": 2715,
      "den": 2716,
      "daign": 2717,
      "fun": 2718,
      "flan": 2719,
      "gag": 2720,
      "gob": 2721,
      "gents": 2722,
      "gouver": 2723,
      "hou": 2724,
      "hont": 2725,
      "ii": 2726,
      "iles": 2727,
      "lune": 2728,
      "laie": 2729,
      "mai": 2730,
      "mant": 2731,
      "mas": 2732,
      "masse": 2733,
      "meurs": 2734,
      "myst": 2735,
      "nis": 2736,
      "nés": 2737,
      "nasse": 2738,
      "ogue": 2739,
      "ples": 2740,
      "poin": 2741,
      "rac": 2742,
      "rose": 2743,
      "rang": 2744,
      "sances": 2745,
      "tau": 2746,
      "tais": 2747,
      "ture": 2748,
      "tyr": 2749,
      "vê": 2750,
      "vô": 2751,
      "vœ": 2752,
      "velle": 2753,
      "vus": 2754,
      "vrais": 2755,
      "virent": 2756,
      "zèle": 2757,
      "âti": 2758,
      "çait": 2759,
      "çant": 2760,
      "ève": 2761,
      "égal": 2762,
      "égard": 2763,
      "évé": 2764,
      "ûter": 2765,
      "œil": 2766,
      "enir": 2767,
      "envi": 2768,
      "repose": 2769,
      "aignez": 2770,
      "dement": 2771,
      "quin": 2772,
      "qualité": 2773,
      "erie": 2774,
      "aur": 2775,
      "augu": 2776,
      "etant": 2777,
      "lamb": 2778,
      "enter": 2779,
      "entendre": 2780,
      "entendit": 2781,
      "serez": 2782,
      "sexe": 2783,
      "araign": 2784,
      "chèvres": 2785,
      "tex": 2786,
      "teau": 2787,
      "isit": 2788,
      "isson": 2789,
      "inte": 2790,
      "intr": 2791,
      "injuste": 2792,
      "prouver": 2793,
      "omb": 2794,
      "assure": 2795,
      "meille": 2796,
      "lue": 2797,
      "trac": 2798,
      "sonner": 2799,
      "sign": 2800,
      "sible": 2801,
      "avons": 2802,
      "avoc": 2803,
      "parfaite": 2804,
      "parnasse": 2805,
      "dessous": 2806,
      "touff": 2807,
      "toucher": 2808,
      "étu": 2809,
      "condu": 2810,
      "consent": 2811,
      "contra": 2812,
      "amar": 2813,
      "amie": 2814,
      "vole": 2815,
      "crit": 2816,
      "pluie": 2817,
      "vif": 2818,
      "vine": 2819,
      "vive": 2820,
      "viol": 2821,
      "déc": 2822,
      "déci": 2823,
      "dépend": 2824,
      "déput": 2825,
      "décla": 2826,
      "serai": 2827,
      "serais": 2828,
      "apprend": 2829,
      "apologue": 2830,
      "abs": 2831,
      "osant": 2832,
      "osco": 2833,
      "montr": 2834,
      "monseigneur": 2835,
      "ffre": 2836,
      "belettes": 2837,
      "ridi": 2838,
      "rivière": 2839,
      "pure": 2840,
      "mier": 2841,
      "mign": 2842,
      "miel": 2843,
      "accourt": 2844,
      "accompagn": 2845,
      "accus": 2846,
      "mesure": 2847,
      "messire": 2848,
      "proche": 2849,
      "produit": 2850,
      "guer": 2851,
      "vertu": 2852,
      "verrez": 2853,
      "ierry": 2854,
      "perdit": 2855,
      "percer": 2856,
      "permet": 2857,
      "perro": 2858,
      "usette": 2859,
      "cognée": 2860,
      "plant": 2861,
      "cormor": 2862,
      "réduit": 2863,
      "tique": 2864,
      "disent": 2865,
      "disaient": 2866,
      "dispute": 2867,
      "enfu": 2868,
      "cherchait": 2869,
      "hommage": 2870,
      "maints": 2871,
      "rendu": 2872,
      "cerveau": 2873,
      "marcher": 2874,
      "marques": 2875,
      "noble": 2876,
      "expri": 2877,
      "expli": 2878,
      "excel": 2879,
      "velo": 2880,
      "fru": 2881,
      "france": 2882,
      "phè": 2883,
      "phé": 2884,
      "venue": 2885,
      "léger": 2886,
      "bro": 2887,
      "brû": 2888,
      "brin": 2889,
      "coupe": 2890,
      "ménage": 2891,
      "pleins": 2892,
      "moindres": 2893,
      "mettr": 2894,
      "drai": 2895,
      "humaine": 2896,
      "laissé": 2897,
      "laissons": 2898,
      "nuire": 2899,
      "obs": 2900,
      "finance": 2901,
      "sourd": 2902,
      "attendez": 2903,
      "telles": 2904,
      "commence": 2905,
      "ordre": 2906,
      "soula": 2907,
      "nées": 2908,
      "pette": 2909,
      "bergère": 2910,
      "traiter": 2911,
      "drez": 2912,
      "fice": 2913,
      "fidèle": 2914,
      "posé": 2915,
      "ferme": 2916,
      "dernière": 2917,
      "couche": 2918,
      "souvient": 2919,
      "santé": 2920,
      "préci": 2921,
      "princes": 2922,
      "cacher": 2923,
      "caché": 2924,
      "sinon": 2925,
      "sincère": 2926,
      "garant": 2927,
      "nouveaux": 2928,
      "faîte": 2929,
      "compagne": 2930,
      "arriver": 2931,
      "istance": 2932,
      "demeur": 2933,
      "lasse": 2934,
      "quittez": 2935,
      "promit": 2936,
      "promis": 2937,
      "suivit": 2938,
      "longs": 2939,
      "écus": 2940,
      "ailles": 2941,
      "trib": 2942,
      "tribu": 2943,
      "répan": 2944,
      "gland": 2945,
      "rends": 2946,
      "viendrait": 2947,
      "écrite": 2948,
      "morceaux": 2949,
      "chéri": 2950,
      "céles": 2951,
      "rompre": 2952,
      "soigneux": 2953,
      "travaux": 2954,
      "soupire": 2955,
      "plaint": 2956,
      "monts": 2957,
      "monter": 2958,
      "citoyen": 2959,
      "fuy": 2960,
      "crédit": 2961,
      "perdirent": 2962,
      "naturel": 2963,
      "étroit": 2964,
      "tromp": 2965,
      "philis": 2966,
      "bourg": 2967,
      "cture": 2968,
      "thierry": 2969,
      "échapp": 2970,
      "habitants": 2971,
      "blesse": 2972,
      "conseille": 2973,
      "visit": 2974,
      "diffici": 2975,
      "songeait": 2976,
      "allons": 2977,
      "crains": 2978,
      "dames": 2979,
      "public": 2980,
      "miracle": 2981,
      "clos": 2982,
      "pensent": 2983,
      "hiver": 2984,
      "scyth": 2985,
      "dommage": 2986,
      "métamorph": 2987,
      "regards": 2988,
      "ronge": 2989,
      "prudent": 2990,
      "répondit": 2991,
      "dangers": 2992,
      "dirai": 2993,
      "favor": 2994,
      "succès": 2995,
      "nécessité": 2996,
      "culti": 2997,
      "famille": 2998,
      "horosco": 2999,
      "descend": 3000,
      "descendu": 3001,
      "importune": 3002,
      "simples": 3003,
      "étranges": 3004,
      "côté": 3005,
      "villageois": 3006,
      "jeunes": 3007,
      "vivait": 3008,
      "vivaient": 3009,
      "cabinet": 3010,
      "épais": 3011,
      "ingrat": 3012,
      "transport": 3013,
      ";;;;;;;;": 3014,
      "fardeau": 3015,
      "pâtur": 3016,
      "testament": 3017,
      "choisir": 3018,
      "tranqu": 3019,
      "moineau": 3020,
      "mêmes": 3021,
      "poisson": 3022,
      "pape": 3023,
      "rarement": 3024,
      "misérables": 3025,
      "agréable": 3026,
      "cérès": 3027,
      "saint": 3028,
      "saints": 3029,
      "devenu": 3030,
      "assuré": 3031,
      "pigeon": 3032,
      "pigeons": 3033,
      "punir": 3034,
      "robin": 3035,
      "terrible": 3036,
      "gorge": 3037,
      "principal": 3038,
      "imprudence": 3039,
      "soupirs": 3040,
      "harangue": 3041,
      "tonnerre": 3042,
      "pèlerins": 3043,
      "torrent": 3044,
      "vulg": 3045,
      "souverain": 3046,
      "genre": 3047,
      "chêne": 3048,
      "trépas": 3049,
      "liberté": 3050,
      "prophète": 3051,
      "guillot": 3052,
      "perfide": 3053,
      "ecoutez": 3054,
      "flancs": 3055,
      "honteux": 3056,
      "vœux": 3057,
      "intro": 3058,
      "perroquet": 3059,
      "cormoran": 3060,
      "horoscope": 3061,
      ".)": 3062,
      "aj": 3063,
      "aqu": 3064,
      "adou": 3065,
      "aler": 3066,
      "ajou": 3067,
      "ban": 3068,
      "boit": 3069,
      "boeuf": 3070,
      "cant": 3071,
      "cav": 3072,
      "clo": 3073,
      "creux": 3074,
      "ction": 3075,
      "dû": 3076,
      "dards": 3077,
      "epou": 3078,
      "fl": 3079,
      "fant": 3080,
      "feux": 3081,
      "fine": 3082,
      "faille": 3083,
      "fît": 3084,
      "gil": 3085,
      "gille": 3086,
      "gagne": 3087,
      "ho": 3088,
      "hâte": 3089,
      "ies": 3090,
      "imit": 3091,
      "icul": 3092,
      "lin": 3093,
      "lir": 3094,
      "lés": 3095,
      "lèrent": 3096,
      "mû": 3097,
      "maient": 3098,
      "mins": 3099,
      "murs": 3100,
      "mères": 3101,
      "moyens": 3102,
      "musette": 3103,
      "nau": 3104,
      "nait": 3105,
      "nains": 3106,
      "opar": 3107,
      "oli": 3108,
      "pur": 3109,
      "pais": 3110,
      "ppo": 3111,
      "presse": 3112,
      "rôt": 3113,
      "scru": 3114,
      "til": 3115,
      "tas": 3116,
      "tani": 3117,
      "têtes": 3118,
      "thé": 3119,
      "ute": 3120,
      "vau": 3121,
      "vait": 3122,
      "vée": 3123,
      "vail": 3124,
      "vaise": 3125,
      "vautour": 3126,
      "xi": 3127,
      "xvi": 3128,
      "xandre": 3129,
      "zir": 3130,
      "élé": 3131,
      "épon": 3132,
      "énor": 3133,
      "ôme": 3134,
      "ench": 3135,
      "enri": 3136,
      "envelo": 3137,
      "reconn": 3138,
      "refu": 3139,
      "revis": 3140,
      "refus": 3141,
      "aile": 3142,
      "quette": 3143,
      "année": 3144,
      "era": 3145,
      "ert": 3146,
      "essay": 3147,
      "eté": 3148,
      "uns": 3149,
      "latin": 3150,
      "entier": 3151,
      "entendu": 3152,
      "secourir": 3153,
      "oison": 3154,
      "euses": 3155,
      "eures": 3156,
      "eusse": 3157,
      "arc": 3158,
      "arde": 3159,
      "aragne": 3160,
      "arbit": 3161,
      "chir": 3162,
      "chaient": 3163,
      "chair": 3164,
      "cevoir": 3165,
      "celles": 3166,
      "orateur": 3167,
      "nements": 3168,
      "isant": 3169,
      "issant": 3170,
      "isseau": 3171,
      "issier": 3172,
      "iner": 3173,
      "ines": 3174,
      "indu": 3175,
      "inier": 3176,
      "prêts": 3177,
      "ombe": 3178,
      "omph": 3179,
      "astr": 3180,
      "luxe": 3181,
      "trot": 3182,
      "trie": 3183,
      "songes": 3184,
      "sie": 3185,
      "sions": 3186,
      "estion": 3187,
      "avou": 3188,
      "avance": 3189,
      "paru": 3190,
      "partant": 3191,
      "ati": 3192,
      "atique": 3193,
      "attirer": 3194,
      "gereux": 3195,
      "alis": 3196,
      "allu": 3197,
      "alités": 3198,
      "sachant": 3199,
      "états": 3200,
      "pourra": 3201,
      "pourrais": 3202,
      "pourraient": 3203,
      "ira": 3204,
      "irai": 3205,
      "iris": 3206,
      "contemp": 3207,
      "convient": 3208,
      "confi": 3209,
      "conta": 3210,
      "conviens": 3211,
      "conduire": 3212,
      "condition": 3213,
      "passage": 3214,
      "passait": 3215,
      "lique": 3216,
      "lice": 3217,
      "lions": 3218,
      "licou": 3219,
      "lisez": 3220,
      "ample": 3221,
      "amants": 3222,
      "vola": 3223,
      "combats": 3224,
      "crie": 3225,
      "crue": 3226,
      "crète": 3227,
      "craignez": 3228,
      "vigil": 3229,
      "vizir": 3230,
      "dés": 3231,
      "dévo": 3232,
      "dépl": 3233,
      "dépou": 3234,
      "déloger": 3235,
      "gra": 3236,
      "grasse": 3237,
      "surer": 3238,
      "appas": 3239,
      "approuv": 3240,
      "abus": 3241,
      "cessa": 3242,
      "survient": 3243,
      "chement": 3244,
      "chemins": 3245,
      "osse": 3246,
      "osait": 3247,
      "autrement": 3248,
      "gnol": 3249,
      "journée": 3250,
      "rier": 3251,
      "riant": 3252,
      "rivage": 3253,
      "mire": 3254,
      "courut": 3255,
      "propres": 3256,
      "gues": 3257,
      "gueur": 3258,
      "guimp": 3259,
      "guères": 3260,
      "guide": 3261,
      "verger": 3262,
      "parer": 3263,
      "points": 3264,
      "ureuil": 3265,
      "plaide": 3266,
      "corri": 3267,
      "terme": 3268,
      "tile": 3269,
      "tise": 3270,
      "tirez": 3271,
      "enfance": 3272,
      "rendit": 3273,
      "cervelle": 3274,
      "marque": 3275,
      "marais": 3276,
      "caract": 3277,
      "expé": 3278,
      "expér": 3279,
      "exquis": 3280,
      "mang": 3281,
      "tuer": 3282,
      "forts": 3283,
      "assemble": 3284,
      "frac": 3285,
      "frage": 3286,
      "frappe": 3287,
      "outa": 3288,
      "venu": 3289,
      "venge": 3290,
      "venons": 3291,
      "venus": 3292,
      "instruit": 3293,
      "couple": 3294,
      "coupable": 3295,
      "trouvent": 3296,
      "vieilles": 3297,
      "ménager": 3298,
      "jupin": 3299,
      "lore": 3300,
      "nonnains": 3301,
      "mettent": 3302,
      "breu": 3303,
      "maîtresse": 3304,
      "tourment": 3305,
      "vase": 3306,
      "nues": 3307,
      "empr": 3308,
      "financier": 3309,
      "témér": 3310,
      "preuve": 3311,
      "attendait": 3312,
      "soû": 3313,
      "angle": 3314,
      "sentait": 3315,
      "aye": 3316,
      "devien": 3317,
      "devraient": 3318,
      "traité": 3319,
      "charlat": 3320,
      "couché": 3321,
      "tente": 3322,
      "prévu": 3323,
      "sauv": 3324,
      "pendu": 3325,
      "pensa": 3326,
      "cache": 3327,
      "caresse": 3328,
      "caquet": 3329,
      "polit": 3330,
      "poète": 3331,
      "garder": 3332,
      "garçon": 3333,
      "saisit": 3334,
      "tenu": 3335,
      "traîn": 3336,
      "façons": 3337,
      "mogo": 3338,
      "chagr": 3339,
      "connus": 3340,
      "bouillon": 3341,
      "sottise": 3342,
      "quitta": 3343,
      "promen": 3344,
      "goûte": 3345,
      "goûter": 3346,
      "hauts": 3347,
      "écrevis": 3348,
      "aillar": 3349,
      "fourmis": 3350,
      "offense": 3351,
      "triomph": 3352,
      "servait": 3353,
      "immortels": 3354,
      "artisan": 3355,
      "réponde": 3356,
      "joue": 3357,
      "rendent": 3358,
      "rendait": 3359,
      "viennent": 3360,
      "écrits": 3361,
      "loue": 3362,
      "moralité": 3363,
      "vainqueur": 3364,
      "soient": 3365,
      "terreur": 3366,
      "droits": 3367,
      "mauvaise": 3368,
      "plains": 3369,
      "fouet": 3370,
      "foudre": 3371,
      "mourant": 3372,
      "mourut": 3373,
      "monta": 3374,
      "unique": 3375,
      "prenant": 3376,
      "prennent": 3377,
      "grossi": 3378,
      "bataille": 3379,
      "contrée": 3380,
      "croyant": 3381,
      "héron": 3382,
      "vénus": 3383,
      "trompette": 3384,
      "troupeaux": 3385,
      "dangereux": 3386,
      "ruine": 3387,
      "ruisseau": 3388,
      "souffle": 3389,
      "appelé": 3390,
      "appeler": 3391,
      "colombe": 3392,
      "route": 3393,
      "embras": 3394,
      "stat": 3395,
      "difficul": 3396,
      "allât": 3397,
      "allèrent": 3398,
      "croquer": 3399,
      "aucuns": 3400,
      "clair": 3401,
      "destinée": 3402,
      "délices": 3403,
      "hippo": 3404,
      "veulent": 3405,
      "objets": 3406,
      "communs": 3407,
      "tiennent": 3408,
      "hypo": 3409,
      "avertis": 3410,
      "ducats": 3411,
      "obliger": 3412,
      "répond": 3413,
      "faveur": 3414,
      "flatte": 3415,
      "jardins": 3416,
      "chaud": 3417,
      "succom": 3418,
      "nullement": 3419,
      "curé": 3420,
      "fameux": 3421,
      "talents": 3422,
      "ennui": 3423,
      "certainement": 3424,
      "suivante": 3425,
      "canaille": 3426,
      "emporta": 3427,
      "emporter": 3428,
      "aperçoit": 3429,
      "défauts": 3430,
      "différents": 3431,
      "réso": 3432,
      "chapit": 3433,
      "campagnes": 3434,
      "nôtres": 3435,
      "pâture": 3436,
      "empêcher": 3437,
      "volonté": 3438,
      "éloquence": 3439,
      "cuisinier": 3440,
      "intérêts": 3441,
      "génisse": 3442,
      "papier": 3443,
      "atteint": 3444,
      "subs": 3445,
      "subtil": 3446,
      "attendant": 3447,
      "bâti": 3448,
      "sorcier": 3449,
      "ouïr": 3450,
      "seconde": 3451,
      "assurance": 3452,
      "paraître": 3453,
      "conclu": 3454,
      "appartient": 3455,
      "accoutu": 3456,
      "frelons": 3457,
      "lâche": 3458,
      "tendresse": 3459,
      "éloigne": 3460,
      "recue": 3461,
      "auriez": 3462,
      "avancer": 3463,
      "alizon": 3464,
      "employ": 3465,
      "satisfaire": 3466,
      "sentiments": 3467,
      "philosophe": 3468,
      "flamme": 3469,
      "goutte": 3470,
      "jalouse": 3471,
      "lyre": 3472,
      "pêcheur": 3473,
      "poids": 3474,
      "pleurant": 3475,
      "espérance": 3476,
      "choisit": 3477,
      "changé": 3478,
      "ambassade": 3479,
      "prochain": 3480,
      "voyageur": 3481,
      "solitaire": 3482,
      "meute": 3483,
      "mâtins": 3484,
      "aimable": 3485,
      "esclave": 3486,
      "ambition": 3487,
      "désespoir": 3488,
      "accident": 3489,
      "cochon": 3490,
      "plonge": 3491,
      "renvoyer": 3492,
      "tempérament": 3493,
      "sûreté": 3494,
      "enseignement": 3495,
      "superflus": 3496,
      "scélérat": 3497,
      "césar": 3498,
      "hospit": 3499,
      "idole": 3500,
      "contents": 3501,
      "continu": 3502,
      "accommo": 3503,
      "douceurs": 3504,
      "possesseur": 3505,
      "caprice": 3506,
      "promptement": 3507,
      "échappa": 3508,
      "troubler": 3509,
      "françois": 3510,
      "royaume": 3511,
      "dauphin": 3512,
      "innocente": 3513,
      "cygne": 3514,
      "funeste": 3515,
      "maigre": 3516,
      "mystère": 3517,
      "vêtu": 3518,
      "aurore": 3519,
      "augus": 3520,
      "lambris": 3521,
      "araignée": 3522,
      "texte": 3523,
      "ridicule": 3524,
      "fruits": 3525,
      "phèdre": 3526,
      "phébus": 3527,
      "difficile": 3528,
      "scythe": 3529,
      "pâturage": 3530,
      "tranquille": 3531,
      "vulgaire": 3532,
      "naufrage": 3533,
      "opard": 3534,
      "scrupu": 3535,
      "envelop": 3536,
      "reconnut": 3537,
      "indul": 3538,
      "guimpe": 3539,
      "caractère": 3540,
      "mogol": 3541,
      "écrevisse": 3542,
      "difficulté": 3543,
      "hippocrate": 3544,
      ":\"": 3545,
      "[...": 3546,
      "ace": 3547,
      "adroit": 3548,
      "aja": 3549,
      "bû": 3550,
      "bours": 3551,
      "cal": 3552,
      "caut": 3553,
      "cée": 3554,
      "cti": 3555,
      "cats": 3556,
      "cite": 3557,
      "cits": 3558,
      "couver": 3559,
      "cyth": 3560,
      "dè": 3561,
      "dap": 3562,
      "dance": 3563,
      "daim": 3564,
      "ement": 3565,
      "fan": 3566,
      "fis": 3567,
      "fas": 3568,
      "fir": 3569,
      "foire": 3570,
      "faise": 3571,
      "flè": 3572,
      "furie": 3573,
      "gles": 3574,
      "gât": 3575,
      "gile": 3576,
      "hô": 3577,
      "hau": 3578,
      "heurs": 3579,
      "happe": 3580,
      "haï": 3581,
      "hnis": 3582,
      "if": 3583,
      "ieu": 3584,
      "ige": 3585,
      "idi": 3586,
      "ive": 3587,
      "iceau": 3588,
      "join": 3589,
      "jouv": 3590,
      "jap": 3591,
      "len": 3592,
      "lète": 3593,
      "loris": 3594,
      "mouv": 3595,
      "mure": 3596,
      "miens": 3597,
      "maille": 3598,
      "mule": 3599,
      "mène": 3600,
      "mœurs": 3601,
      "mament": 3602,
      "nois": 3603,
      "not": 3604,
      "nag": 3605,
      "noire": 3606,
      "noie": 3607,
      "nages": 3608,
      "ote": 3609,
      "ocr": 3610,
      "pil": 3611,
      "pant": 3612,
      "peux": 3613,
      "pins": 3614,
      "plie": 3615,
      "purent": 3616,
      "rè": 3617,
      "rin": 3618,
      "ravis": 3619,
      "rossi": 3620,
      "rapporte": 3621,
      "sois": 3622,
      "savant": 3623,
      "sante": 3624,
      "saires": 3625,
      "spect": 3626,
      "teurs": 3627,
      "usa": 3628,
      "uses": 3629,
      "vil": 3630,
      "vor": 3631,
      "vôt": 3632,
      "villes": 3633,
      "vaille": 3634,
      "xion": 3635,
      "ze": 3636,
      "âmes": 3637,
      "ânier": 3638,
      "écor": 3639,
      "éga": 3640,
      "êle": 3641,
      "êpe": 3642,
      "ône": 3643,
      "ôtez": 3644,
      "envoie": 3645,
      "leu": 3646,
      "lecteur": 3647,
      "reprend": 3648,
      "recours": 3649,
      "repent": 3650,
      "regarde": 3651,
      "remerci": 3652,
      "rebours": 3653,
      "ondes": 3654,
      "delà": 3655,
      "debout": 3656,
      "deuil": 3657,
      "quérir": 3658,
      "qualités": 3659,
      "andes": 3660,
      "erais": 3661,
      "itaire": 3662,
      "itude": 3663,
      "espa": 3664,
      "ession": 3665,
      "aud": 3666,
      "illant": 3667,
      "lab": 3668,
      "lacet": 3669,
      "lari": 3670,
      "lapins": 3671,
      "entrai": 3672,
      "oix": 3673,
      "oine": 3674,
      "argu": 3675,
      "arbres": 3676,
      "cho": 3677,
      "chit": 3678,
      "chent": 3679,
      "chér": 3680,
      "chim": 3681,
      "châti": 3682,
      "chute": 3683,
      "chloris": 3684,
      "teint": 3685,
      "org": 3686,
      "oracle": 3687,
      "orieux": 3688,
      "ornement": 3689,
      "antique": 3690,
      "antiqu": 3691,
      "ison": 3692,
      "isait": 3693,
      "ister": 3694,
      "istes": 3695,
      "istres": 3696,
      "indis": 3697,
      "incomm": 3698,
      "incl": 3699,
      "insec": 3700,
      "infini": 3701,
      "injustice": 3702,
      "incessa": 3703,
      "prai": 3704,
      "astres": 3705,
      "assurer": 3706,
      "mez": 3707,
      "sique": 3708,
      "siff": 3709,
      "signe": 3710,
      "estique": 3711,
      "parfait": 3712,
      "parfu": 3713,
      "parlent": 3714,
      "jeû": 3715,
      "dest": 3716,
      "alci": 3717,
      "allég": 3718,
      "altér": 3719,
      "touche": 3720,
      "sache": 3721,
      "étang": 3722,
      "pourri": 3723,
      "pourvoir": 3724,
      "pourront": 3725,
      "pourrons": 3726,
      "iront": 3727,
      "irrit": 3728,
      "conté": 3729,
      "contest": 3730,
      "pasteur": 3731,
      "passée": 3732,
      "passants": 3733,
      "lime": 3734,
      "lière": 3735,
      "amène": 3736,
      "dité": 3737,
      "titude": 3738,
      "voeu": 3739,
      "comble": 3740,
      "compense": 3741,
      "croc": 3742,
      "crist": 3743,
      "divins": 3744,
      "endor": 3745,
      "plumage": 3746,
      "vidence": 3747,
      "débr": 3748,
      "dépos": 3749,
      "démo": 3750,
      "désor": 3751,
      "détruit": 3752,
      "grais": 3753,
      "grav": 3754,
      "grat": 3755,
      "grave": 3756,
      "grandes": 3757,
      "magn": 3758,
      "servent": 3759,
      "apper": 3760,
      "appris": 3761,
      "apporter": 3762,
      "menton": 3763,
      "mentir": 3764,
      "menteur": 3765,
      "abe": 3766,
      "cesser": 3767,
      "surplus": 3768,
      "survint": 3769,
      "cheveux": 3770,
      "osité": 3771,
      "peuples": 3772,
      "auts": 3773,
      "autés": 3774,
      "maisons": 3775,
      "beautés": 3776,
      "resser": 3777,
      "restait": 3778,
      "ressource": 3779,
      "respire": 3780,
      "respec": 3781,
      "rieur": 3782,
      "riche": 3783,
      "rive": 3784,
      "riches": 3785,
      "rivaux": 3786,
      "pul": 3787,
      "puce": 3788,
      "quels": 3789,
      "mise": 3790,
      "acquit": 3791,
      "acquis": 3792,
      "acquérir": 3793,
      "course": 3794,
      "messer": 3795,
      "prodi": 3796,
      "providence": 3797,
      "peint": 3798,
      "gué": 3799,
      "guin": 3800,
      "guérir": 3801,
      "guêpe": 3802,
      "paï": 3803,
      "paître": 3804,
      "patri": 3805,
      "paresse": 3806,
      "patrie": 3807,
      "permit": 3808,
      "usé": 3809,
      "coeurs": 3810,
      "coquette": 3811,
      "malherbe": 3812,
      "malaisé": 3813,
      "malheureuse": 3814,
      "malheurs": 3815,
      "plé": 3816,
      "plai": 3817,
      "corne": 3818,
      "rég": 3819,
      "rédu": 3820,
      "régner": 3821,
      "réjouir": 3822,
      "réfle": 3823,
      "réparer": 3824,
      "récits": 3825,
      "récompense": 3826,
      "terminer": 3827,
      "dissi": 3828,
      "discorde": 3829,
      "enfou": 3830,
      "cherchez": 3831,
      "puissances": 3832,
      "maintenant": 3833,
      "renon": 3834,
      "rendez": 3835,
      "renvoie": 3836,
      "rendus": 3837,
      "rencontra": 3838,
      "cerfs": 3839,
      "marbre": 3840,
      "martin": 3841,
      "marrons": 3842,
      "tempête": 3843,
      "carnage": 3844,
      "noces": 3845,
      "excès": 3846,
      "manqua": 3847,
      "manteau": 3848,
      "tume": 3849,
      "frapp": 3850,
      "outé": 3851,
      "léopard": 3852,
      "agile": 3853,
      "trouvé": 3854,
      "trouvèrent": 3855,
      "entree": 3856,
      "entreprise": 3857,
      "mélan": 3858,
      "ménée": 3859,
      "méprise": 3860,
      "mette": 3861,
      "drons": 3862,
      "sév": 3863,
      "sénat": 3864,
      "sortit": 3865,
      "sortent": 3866,
      "tourner": 3867,
      "laissant": 3868,
      "cuv": 3869,
      "porta": 3870,
      "portes": 3871,
      "vache": 3872,
      "nuage": 3873,
      "nuits": 3874,
      "finir": 3875,
      "grandville": 3876,
      "souriceau": 3877,
      "attends": 3878,
      "soeurs": 3879,
      "socrate": 3880,
      "anglais": 3881,
      "formé": 3882,
      "chacune": 3883,
      "prison": 3884,
      "prière": 3885,
      "prieure": 3886,
      "sentit": 3887,
      "sentir": 3888,
      "devons": 3889,
      "fixe": 3890,
      "charger": 3891,
      "fonde": 3892,
      "feront": 3893,
      "ferons": 3894,
      "fermier": 3895,
      "lionne": 3896,
      "coucher": 3897,
      "certaines": 3898,
      "sagement": 3899,
      "jambes": 3900,
      "prendrai": 3901,
      "donnant": 3902,
      "précaut": 3903,
      "prévôt": 3904,
      "sauve": 3905,
      "sauva": 3906,
      "sauvé": 3907,
      "sauraient": 3908,
      "pendit": 3909,
      "penses": 3910,
      "alexandre": 3911,
      "pol": 3912,
      "poé": 3913,
      "placé": 3914,
      "tombeau": 3915,
      "nouvel": 3916,
      "nouvelles": 3917,
      "lieue": 3918,
      "appât": 3919,
      "traî": 3920,
      "faerne": 3921,
      "géné": 3922,
      "gémit": 3923,
      "modé": 3924,
      "moquer": 3925,
      "modèle": 3926,
      "plaisant": 3927,
      "marchait": 3928,
      "..........": 3929,
      "noms": 3930,
      "nomme": 3931,
      "arrière": 3932,
      "chaî": 3933,
      "pauvreté": 3934,
      "nates": 3935,
      "nation": 3936,
      "istait": 3937,
      "mener": 3938,
      "menus": 3939,
      "habits": 3940,
      "lassé": 3941,
      "sottis": 3942,
      "quitté": 3943,
      "suivant": 3944,
      "gosier": 3945,
      "écureuil": 3946,
      "chansons": 3947,
      "voiture": 3948,
      "usez": 3949,
      "arrêts": 3950,
      "trio": 3951,
      "répand": 3952,
      "glorieux": 3953,
      "jouer": 3954,
      "écrire": 3955,
      "quadru": 3956,
      "louange": 3957,
      "célé": 3958,
      "célè": 3959,
      "péné": 3960,
      "pédant": 3961,
      "péchés": 3962,
      "romans": 3963,
      "romains": 3964,
      "rompt": 3965,
      "traver": 3966,
      "aventur": 3967,
      "souper": 3968,
      "montagne": 3969,
      "marchands": 3970,
      "citoyens": 3971,
      "moucheron": 3972,
      "universe": 3973,
      "prétendre": 3974,
      "prétendu": 3975,
      "perdent": 3976,
      "illent": 3977,
      "illir": 3978,
      "trompe": 3979,
      "bourgogne": 3980,
      "danse": 3981,
      "loisir": 3982,
      "dormant": 3983,
      "gagn": 3984,
      "approcher": 3985,
      "approchez": 3986,
      "approcha": 3987,
      "approchant": 3988,
      "thème": 3989,
      "échine": 3990,
      "échappe": 3991,
      "habitait": 3992,
      "habitant": 3993,
      "rocher": 3994,
      "rodil": 3995,
      "œuvre": 3996,
      "visage": 3997,
      "troubl": 3998,
      "criait": 3999
    },
    "merges": [
      [
        "e",
        "n"
      ],
      [
        "l",
        "e"
      ],
      [
        "o",
        "u"
      ],
      [
        "r",
        "e"
      ],
      [
        "a",
        "i"
      ],
      [
        "o",
        "n"
      ],
      [
        "d",
        "e"
      ],
      [
        "q",
        "u"
      ],
      [
        "a",
        "n"
      ],
      [
        "e",
        "r"
      ],
      [
        "i",
        "t"
      ],
      [
        "e",
        "s"
      ],
      [
        "a",
        "u"
      ],
      [
        "e",
        "t"
      ],
      [
        "i",
        "l"
      ],
      [
        "u",
        "n"
      ],
      [
        "l",
        "a"
      ],
      [
        "en",
        "t"
      ],
      [
        "s",
        "e"
      ],
      [
        "o",
        "i"
      ],
      [
        "e",
        "u"
      ],
      [
        "a",
        "r"
      ],
      [
        "ai",
        "t"
      ],
      [
        "c",
        "h"
      ],
      [
        "qu",
        "e"
      ],
      [
        "ou",
        "r"
      ],
      [
        "t",
        "e"
      ],
      [
        "c",
        "e"
      ],
      [
        "o",
        "r"
      ],
      [
        "le",
        "s"
      ],
      [
        "n",
        "e"
      ],
      [
        "an",
        "t"
      ],
      [
        "i",
        "s"
      ],
      [
        "i",
        "n"
      ],
      [
        "p",
        "r"
      ],
      [
        "ou",
        "s"
      ],
      [
        "t",
        "re"
      ],
      [
        "o",
        "m"
      ],
      [
        "u",
        "r"
      ],
      [
        "a",
        "s"
      ],
      [
        "m",
        "e"
      ],
      [
        "ai",
        "s"
      ],
      [
        "l",
        "u"
      ],
      [
        "t",
        "r"
      ],
      [
        "s",
        "on"
      ],
      [
        "s",
        "i"
      ],
      [
        "es",
        "t"
      ],
      [
        "a",
        "v"
      ],
      [
        "p",
        "ar"
      ],
      [
        "i",
        "en"
      ],
      [
        "a",
        "t"
      ],
      [
        "g",
        "e"
      ],
      [
        "<",
        "|"
      ],
      [
        "j",
        "e"
      ],
      [
        "|",
        ">"
      ],
      [
        "de",
        "s"
      ],
      [
        "a",
        "l"
      ],
      [
        "t",
        "ou"
      ],
      [
        "d",
        "u"
      ],
      [
        "an",
        "s"
      ],
      [
        "s",
        "a"
      ],
      [
        "l",
        "le"
      ],
      [
        "é",
        "t"
      ],
      [
        "p",
        "our"
      ],
      [
        "qu",
        "i"
      ],
      [
        "v",
        "ous"
      ],
      [
        "i",
        "r"
      ],
      [
        "c",
        "on"
      ],
      [
        "p",
        "as"
      ],
      [
        "eu",
        "x"
      ],
      [
        "ai",
        "n"
      ],
      [
        "or",
        "t"
      ],
      [
        "l",
        "i"
      ],
      [
        "un",
        "e"
      ],
      [
        "a",
        "m"
      ],
      [
        "d",
        "it"
      ],
      [
        "t",
        "it"
      ],
      [
        "v",
        "o"
      ],
      [
        "eu",
        "r"
      ],
      [
        "oi",
        "n"
      ],
      [
        "c",
        "om"
      ],
      [
        "tit",
        "re"
      ],
      [
        "c",
        "r"
      ],
      [
        "d",
        "i"
      ],
      [
        "en",
        "d"
      ],
      [
        "tou",
        "t"
      ],
      [
        "p",
        "lu"
      ],
      [
        "au",
        "x"
      ],
      [
        "le",
        "ur"
      ],
      [
        ".",
        "."
      ],
      [
        "m",
        "p"
      ],
      [
        "ou",
        "v"
      ],
      [
        "oi",
        "s"
      ],
      [
        "v",
        "i"
      ],
      [
        "è",
        "re"
      ],
      [
        "lu",
        "i"
      ],
      [
        "d",
        "é"
      ],
      [
        "g",
        "r"
      ],
      [
        "on",
        "t"
      ],
      [
        "s",
        "u"
      ],
      [
        "c",
        "i"
      ],
      [
        "plu",
        "s"
      ],
      [
        "m",
        "a"
      ],
      [
        "s",
        "er"
      ],
      [
        "ai",
        "re"
      ],
      [
        "a",
        "p"
      ],
      [
        "m",
        "ent"
      ],
      [
        "a",
        "b"
      ],
      [
        "u",
        "t"
      ],
      [
        "b",
        "ien"
      ],
      [
        "c",
        "es"
      ],
      [
        "s",
        "ur"
      ],
      [
        "ch",
        "e"
      ],
      [
        "on",
        "s"
      ],
      [
        "f",
        "ait"
      ],
      [
        "e",
        "lle"
      ],
      [
        "o",
        "s"
      ],
      [
        "an",
        "d"
      ],
      [
        "c",
        "et"
      ],
      [
        "d",
        "ans"
      ],
      [
        "au",
        "tre"
      ],
      [
        "m",
        "on"
      ],
      [
        "ou",
        "p"
      ],
      [
        "é",
        "s"
      ],
      [
        "p",
        "eu"
      ],
      [
        "f",
        "f"
      ],
      [
        "au",
        "t"
      ],
      [
        "m",
        "ais"
      ],
      [
        "s",
        "es"
      ],
      [
        "n",
        "ous"
      ],
      [
        "b",
        "e"
      ],
      [
        "g",
        "n"
      ],
      [
        "re",
        "s"
      ],
      [
        "j",
        "our"
      ],
      [
        "r",
        "i"
      ],
      [
        "ai",
        "ent"
      ],
      [
        "p",
        "u"
      ],
      [
        "que",
        "l"
      ],
      [
        "il",
        "s"
      ],
      [
        "m",
        "i"
      ],
      [
        "a",
        "c"
      ],
      [
        "u",
        "x"
      ],
      [
        "a",
        "ge"
      ],
      [
        "é",
        "e"
      ],
      [
        "c",
        "our"
      ],
      [
        "en",
        "s"
      ],
      [
        "m",
        "es"
      ],
      [
        "pr",
        "o"
      ],
      [
        "é",
        "r"
      ],
      [
        "se",
        "p"
      ],
      [
        "oi",
        "r"
      ],
      [
        "p",
        "e"
      ],
      [
        "g",
        "u"
      ],
      [
        "d",
        "on"
      ],
      [
        "v",
        "er"
      ],
      [
        "oin",
        "t"
      ],
      [
        "p",
        "a"
      ],
      [
        "o",
        "t"
      ],
      [
        "i",
        "er"
      ],
      [
        "ét",
        "ait"
      ],
      [
        "p",
        "er"
      ],
      [
        "p",
        "oint"
      ],
      [
        "u",
        "s"
      ],
      [
        "il",
        "le"
      ],
      [
        "i",
        "e"
      ],
      [
        "o",
        "it"
      ],
      [
        "s",
        "ans"
      ],
      [
        "cet",
        "te"
      ],
      [
        "t",
        "ant"
      ],
      [
        "c",
        "o"
      ],
      [
        "g",
        "er"
      ],
      [
        "m",
        "oi"
      ],
      [
        "t",
        "ous"
      ],
      [
        "u",
        "re"
      ],
      [
        "m",
        "al"
      ],
      [
        "ô",
        "t"
      ],
      [
        "p",
        "l"
      ],
      [
        "ar",
        "d"
      ],
      [
        "c",
        "or"
      ],
      [
        "r",
        "é"
      ],
      [
        "t",
        "er"
      ],
      [
        "e",
        "z"
      ],
      [
        "t",
        "i"
      ],
      [
        "d",
        "is"
      ],
      [
        "en",
        "f"
      ],
      [
        "è",
        "s"
      ],
      [
        "de",
        "ux"
      ],
      [
        "ch",
        "er"
      ],
      [
        "h",
        "om"
      ],
      [
        "ê",
        "me"
      ],
      [
        "pu",
        "is"
      ],
      [
        "f",
        "ut"
      ],
      [
        "m",
        "ain"
      ],
      [
        "r",
        "en"
      ],
      [
        "c",
        "er"
      ],
      [
        "b",
        "on"
      ],
      [
        "m",
        "ar"
      ],
      [
        "quel",
        "que"
      ],
      [
        "te",
        "mp"
      ],
      [
        "com",
        "me"
      ],
      [
        "c",
        "ar"
      ],
      [
        "n",
        "o"
      ],
      [
        "e",
        "x"
      ],
      [
        "m",
        "an"
      ],
      [
        "..",
        ".."
      ],
      [
        "f",
        "aire"
      ],
      [
        "g",
        "ens"
      ],
      [
        "v",
        "e"
      ],
      [
        "t",
        "u"
      ],
      [
        "m",
        "b"
      ],
      [
        "e",
        "c"
      ],
      [
        "f",
        "ort"
      ],
      [
        "r",
        "a"
      ],
      [
        "son",
        "t"
      ],
      [
        "av",
        "ait"
      ],
      [
        "û",
        "t"
      ],
      [
        "m",
        "ême"
      ],
      [
        "as",
        "se"
      ],
      [
        "î",
        "tre"
      ],
      [
        "au",
        "s"
      ],
      [
        "av",
        "ec"
      ],
      [
        "f",
        "r"
      ],
      [
        "ou",
        "t"
      ],
      [
        "u",
        "l"
      ],
      [
        "ê",
        "tre"
      ],
      [
        "n",
        "i"
      ],
      [
        "l",
        "à"
      ],
      [
        "f",
        "it"
      ],
      [
        "t",
        "es"
      ],
      [
        "v",
        "re"
      ],
      [
        "e",
        "mp"
      ],
      [
        "p",
        "h"
      ],
      [
        "jour",
        "s"
      ],
      [
        "ê",
        "te"
      ],
      [
        "or",
        "te"
      ],
      [
        "hom",
        "me"
      ],
      [
        "i",
        "ne"
      ],
      [
        "o",
        "se"
      ],
      [
        "r",
        "ais"
      ],
      [
        "ab",
        "le"
      ],
      [
        "leur",
        "s"
      ],
      [
        "v",
        "en"
      ],
      [
        "an",
        "ce"
      ],
      [
        "vo",
        "y"
      ],
      [
        "l",
        "é"
      ],
      [
        "b",
        "r"
      ],
      [
        "pr",
        "it"
      ],
      [
        "in",
        "s"
      ],
      [
        "eur",
        "s"
      ],
      [
        "temp",
        "s"
      ],
      [
        "end",
        "re"
      ],
      [
        "a",
        "g"
      ],
      [
        "c",
        "oup"
      ],
      [
        "f",
        "aut"
      ],
      [
        "o",
        "y"
      ],
      [
        "tr",
        "ouv"
      ],
      [
        "ent",
        "re"
      ],
      [
        "vi",
        "e"
      ],
      [
        "l",
        "on"
      ],
      [
        "no",
        "tre"
      ],
      [
        "m",
        "é"
      ],
      [
        "eu",
        "t"
      ],
      [
        "p",
        "le"
      ],
      [
        "v",
        "ou"
      ],
      [
        "ant",
        "s"
      ],
      [
        "be",
        "au"
      ],
      [
        "r",
        "ien"
      ],
      [
        "m",
        "oin"
      ],
      [
        "l",
        "ait"
      ],
      [
        "qu",
        "and"
      ],
      [
        "j",
        "u"
      ],
      [
        "l",
        "oup"
      ],
      [
        "qu",
        "oi"
      ],
      [
        "l",
        "o"
      ],
      [
        "n",
        "on"
      ],
      [
        "m",
        "et"
      ],
      [
        "peu",
        "t"
      ],
      [
        "t",
        "s"
      ],
      [
        "b",
        "re"
      ],
      [
        "d",
        "r"
      ],
      [
        "an",
        "i"
      ],
      [
        "ma",
        "ître"
      ],
      [
        "d",
        "ou"
      ],
      [
        "h",
        "u"
      ],
      [
        "s",
        "é"
      ],
      [
        "v",
        "it"
      ],
      [
        "ver",
        "s"
      ],
      [
        "s",
        "ort"
      ],
      [
        "t",
        "our"
      ],
      [
        "le",
        "r"
      ],
      [
        "l",
        "ais"
      ],
      [
        "c",
        "u"
      ],
      [
        "on",
        "n"
      ],
      [
        "p",
        "ort"
      ],
      [
        "v",
        "a"
      ],
      [
        "v",
        "oir"
      ],
      [
        "n",
        "u"
      ],
      [
        "eu",
        "re"
      ],
      [
        "vi",
        "ent"
      ],
      [
        "par",
        "t"
      ],
      [
        "che",
        "z"
      ],
      [
        "o",
        "p"
      ],
      [
        "e",
        "m"
      ],
      [
        "v",
        "oi"
      ],
      [
        "j",
        "et"
      ],
      [
        "in",
        "t"
      ],
      [
        "o",
        "b"
      ],
      [
        "ent",
        "s"
      ],
      [
        "a",
        "ff"
      ],
      [
        "f",
        "in"
      ],
      [
        "f",
        "ais"
      ],
      [
        "t",
        "é"
      ],
      [
        "p",
        "it"
      ],
      [
        "ai",
        "ne"
      ],
      [
        "tou",
        "jours"
      ],
      [
        "vo",
        "tre"
      ],
      [
        "di",
        "re"
      ],
      [
        "cer",
        "t"
      ],
      [
        "p",
        "re"
      ],
      [
        "gr",
        "and"
      ],
      [
        "oi",
        "re"
      ],
      [
        "i",
        "on"
      ],
      [
        "j",
        "us"
      ],
      [
        "s",
        "our"
      ],
      [
        "ch",
        "ose"
      ],
      [
        "at",
        "t"
      ],
      [
        "ain",
        "si"
      ],
      [
        "di",
        "eux"
      ],
      [
        "s",
        "o"
      ],
      [
        "te",
        "l"
      ],
      [
        "pr",
        "ès"
      ],
      [
        "at",
        "s"
      ],
      [
        "don",
        "c"
      ],
      [
        "f",
        "ois"
      ],
      [
        "g",
        "ne"
      ],
      [
        "n",
        "os"
      ],
      [
        "an",
        "g"
      ],
      [
        "com",
        "m"
      ],
      [
        "r",
        "ent"
      ],
      [
        "it",
        "é"
      ],
      [
        "or",
        "s"
      ],
      [
        "ien",
        "s"
      ],
      [
        "tou",
        "te"
      ],
      [
        "con",
        "tre"
      ],
      [
        "ren",
        "ard"
      ],
      [
        "f",
        "or"
      ],
      [
        "â",
        "t"
      ],
      [
        "ch",
        "ac"
      ],
      [
        "pr",
        "is"
      ],
      [
        "di",
        "eu"
      ],
      [
        "it",
        "e"
      ],
      [
        "or",
        "d"
      ],
      [
        "aus",
        "si"
      ],
      [
        "moin",
        "s"
      ],
      [
        "o",
        "ù"
      ],
      [
        "r",
        "ait"
      ],
      [
        "s",
        "ou"
      ],
      [
        "pr",
        "i"
      ],
      [
        "tr",
        "op"
      ],
      [
        "m",
        "er"
      ],
      [
        "s",
        "ent"
      ],
      [
        "a",
        "y"
      ],
      [
        "f",
        "em"
      ],
      [
        "de",
        "v"
      ],
      [
        "chac",
        "un"
      ],
      [
        "d",
        "ont"
      ],
      [
        "n",
        "é"
      ],
      [
        "b",
        "le"
      ],
      [
        "p",
        "et"
      ],
      [
        "la",
        "r"
      ],
      [
        "ce",
        "lui"
      ],
      [
        "b",
        "er"
      ],
      [
        "i",
        "re"
      ],
      [
        "m",
        "is"
      ],
      [
        "tr",
        "ait"
      ],
      [
        "d",
        "re"
      ],
      [
        "e",
        "l"
      ],
      [
        "f",
        "i"
      ],
      [
        "p",
        "end"
      ],
      [
        "p",
        "os"
      ],
      [
        "ch",
        "ar"
      ],
      [
        "f",
        "on"
      ],
      [
        "en",
        "ce"
      ],
      [
        "f",
        "er"
      ],
      [
        "i",
        "gn"
      ],
      [
        "m",
        "ort"
      ],
      [
        "se",
        "mb"
      ],
      [
        "mi",
        "eux"
      ],
      [
        "e",
        "ût"
      ],
      [
        "m",
        "ot"
      ],
      [
        "r",
        "ai"
      ],
      [
        "de",
        "r"
      ],
      [
        "es",
        "prit"
      ],
      [
        "il",
        "les"
      ],
      [
        "li",
        "on"
      ],
      [
        "enf",
        "in"
      ],
      [
        "c",
        "ou"
      ],
      [
        "f",
        "ont"
      ],
      [
        "g",
        "ent"
      ],
      [
        "am",
        "our"
      ],
      [
        "i",
        "mp"
      ],
      [
        "s",
        "ouv"
      ],
      [
        "v",
        "ois"
      ],
      [
        "en",
        "cor"
      ],
      [
        "cert",
        "ain"
      ],
      [
        "e",
        "au"
      ],
      [
        "s",
        "ant"
      ],
      [
        "ch",
        "at"
      ],
      [
        "sa",
        "ge"
      ],
      [
        "j",
        "am"
      ],
      [
        "r",
        "oi"
      ],
      [
        "pr",
        "end"
      ],
      [
        "p",
        "au"
      ],
      [
        "don",
        "n"
      ],
      [
        "s",
        "ait"
      ],
      [
        "s",
        "ous"
      ],
      [
        "qu",
        "es"
      ],
      [
        "aff",
        "aire"
      ],
      [
        "fem",
        "me"
      ],
      [
        "h",
        "eure"
      ],
      [
        "t",
        "ent"
      ],
      [
        "it",
        "s"
      ],
      [
        "il",
        "à"
      ],
      [
        "pr",
        "é"
      ],
      [
        "vo",
        "ilà"
      ],
      [
        "d",
        "s"
      ],
      [
        "p",
        "ou"
      ],
      [
        "s",
        "au"
      ],
      [
        "ce",
        "la"
      ],
      [
        "jam",
        "ais"
      ],
      [
        "ai",
        "lle"
      ],
      [
        "ay",
        "ant"
      ],
      [
        "pend",
        "ant"
      ],
      [
        "p",
        "en"
      ],
      [
        "r",
        "at"
      ],
      [
        "s",
        "it"
      ],
      [
        "pr",
        "in"
      ],
      [
        "è",
        "rent"
      ],
      [
        "re",
        "r"
      ],
      [
        "ir",
        "ent"
      ],
      [
        "sit",
        "ôt"
      ],
      [
        "a",
        "le"
      ],
      [
        "c",
        "a"
      ],
      [
        "c",
        "ent"
      ],
      [
        "rais",
        "on"
      ],
      [
        "p",
        "o"
      ],
      [
        "p",
        "la"
      ],
      [
        "p",
        "ère"
      ],
      [
        "p",
        "ie"
      ],
      [
        "s",
        "in"
      ],
      [
        "v",
        "ent"
      ],
      [
        "se",
        "ul"
      ],
      [
        "ur",
        "s"
      ],
      [
        "su",
        "is"
      ],
      [
        "g",
        "ar"
      ],
      [
        "s",
        "om"
      ],
      [
        "t",
        "om"
      ],
      [
        "er",
        "re"
      ],
      [
        "av",
        "oir"
      ],
      [
        "vo",
        "s"
      ],
      [
        "m",
        "it"
      ],
      [
        "n",
        "ouv"
      ],
      [
        "o",
        "c"
      ],
      [
        "p",
        "s"
      ],
      [
        "s",
        "ais"
      ],
      [
        "t",
        "en"
      ],
      [
        "t",
        "ête"
      ],
      [
        "li",
        "eu"
      ],
      [
        "ap",
        "p"
      ],
      [
        "asse",
        "z"
      ],
      [
        "ju",
        "pit"
      ],
      [
        "jupit",
        "er"
      ],
      [
        "s",
        "oin"
      ],
      [
        "s",
        "oit"
      ],
      [
        "u",
        "it"
      ],
      [
        "tr",
        "a"
      ],
      [
        "b",
        "out"
      ],
      [
        "f",
        "a"
      ],
      [
        "g",
        "é"
      ],
      [
        "i",
        "ci"
      ],
      [
        "m",
        "o"
      ],
      [
        "t",
        "a"
      ],
      [
        "pr",
        "endre"
      ],
      [
        "com",
        "pa"
      ],
      [
        "pl",
        "ais"
      ],
      [
        "f",
        "able"
      ],
      [
        "t",
        "in"
      ],
      [
        "av",
        "ant"
      ],
      [
        "autre",
        "s"
      ],
      [
        "mar",
        "ch"
      ],
      [
        "....",
        "...."
      ],
      [
        "aus",
        "sitôt"
      ],
      [
        "ani",
        "mal"
      ],
      [
        "n",
        "om"
      ],
      [
        "ai",
        "r"
      ],
      [
        "an",
        "te"
      ],
      [
        "se",
        "au"
      ],
      [
        "ar",
        "ri"
      ],
      [
        "ch",
        "a"
      ],
      [
        "ét",
        "ant"
      ],
      [
        "cour",
        "s"
      ],
      [
        "pe",
        "ine"
      ],
      [
        "pre",
        "mi"
      ],
      [
        "pau",
        "vre"
      ],
      [
        "g",
        "es"
      ],
      [
        "g",
        "is"
      ],
      [
        "n",
        "at"
      ],
      [
        "p",
        "i"
      ],
      [
        "p",
        "ouv"
      ],
      [
        "t",
        "on"
      ],
      [
        "is",
        "t"
      ],
      [
        "con",
        "n"
      ],
      [
        "c",
        "as"
      ],
      [
        "c",
        "eux"
      ],
      [
        "m",
        "en"
      ],
      [
        "â",
        "ne"
      ],
      [
        "au",
        "c"
      ],
      [
        "ch",
        "ant"
      ],
      [
        "pa",
        "re"
      ],
      [
        "b",
        "ou"
      ],
      [
        "m",
        "in"
      ],
      [
        "de",
        "m"
      ],
      [
        "al",
        "lait"
      ],
      [
        "cour",
        "t"
      ],
      [
        "gu",
        "e"
      ],
      [
        "pa",
        "y"
      ],
      [
        "a",
        "près"
      ],
      [
        "h",
        "ab"
      ],
      [
        "h",
        "onn"
      ],
      [
        "i",
        "ère"
      ],
      [
        "m",
        "aux"
      ],
      [
        "oi",
        "e"
      ],
      [
        "ch",
        "ien"
      ],
      [
        "ce",
        "lle"
      ],
      [
        "lu",
        "t"
      ],
      [
        "gr",
        "â"
      ],
      [
        "le",
        "t"
      ],
      [
        "le",
        "z"
      ],
      [
        "la",
        "s"
      ],
      [
        "pr",
        "és"
      ],
      [
        "am",
        "i"
      ],
      [
        "peu",
        "ple"
      ],
      [
        "souv",
        "ent"
      ],
      [
        "compa",
        "gn"
      ],
      [
        "d",
        "a"
      ],
      [
        "s",
        "ot"
      ],
      [
        "u",
        "e"
      ],
      [
        "î",
        "t"
      ],
      [
        "on",
        "de"
      ],
      [
        "qu",
        "it"
      ],
      [
        "pr",
        "om"
      ],
      [
        "tr",
        "ois"
      ],
      [
        "su",
        "i"
      ],
      [
        "mon",
        "de"
      ],
      [
        "lon",
        "g"
      ],
      [
        "f",
        "ils"
      ],
      [
        "g",
        "o"
      ],
      [
        "h",
        "aut"
      ],
      [
        "v",
        "eut"
      ],
      [
        "y",
        "eux"
      ],
      [
        "é",
        "c"
      ],
      [
        "ai",
        "l"
      ],
      [
        "se",
        "ign"
      ],
      [
        "l",
        "ant"
      ],
      [
        "v",
        "eux"
      ],
      [
        "ch",
        "an"
      ],
      [
        "ch",
        "am"
      ],
      [
        "vo",
        "it"
      ],
      [
        "su",
        "s"
      ],
      [
        "don",
        "ne"
      ],
      [
        "main",
        "s"
      ],
      [
        "sour",
        "is"
      ],
      [
        "a",
        "d"
      ],
      [
        "b",
        "elle"
      ],
      [
        "f",
        "our"
      ],
      [
        "o",
        "ff"
      ],
      [
        "u",
        "se"
      ],
      [
        "ar",
        "r"
      ],
      [
        "tr",
        "i"
      ],
      [
        "com",
        "p"
      ],
      [
        "ser",
        "v"
      ],
      [
        "lais",
        "se"
      ],
      [
        "i",
        "m"
      ],
      [
        "o",
        "re"
      ],
      [
        "v",
        "in"
      ],
      [
        "et",
        "te"
      ],
      [
        "ar",
        "t"
      ],
      [
        "ère",
        "s"
      ],
      [
        "gr",
        "é"
      ],
      [
        "ré",
        "p"
      ],
      [
        "bon",
        "ne"
      ],
      [
        "da",
        "me"
      ],
      [
        "b",
        "as"
      ],
      [
        "g",
        "l"
      ],
      [
        "j",
        "ou"
      ],
      [
        "r",
        "end"
      ],
      [
        "v",
        "ien"
      ],
      [
        "v",
        "al"
      ],
      [
        "é",
        "cr"
      ],
      [
        "ê",
        "tes"
      ],
      [
        "qu",
        "a"
      ],
      [
        "ar",
        "gent"
      ],
      [
        "e",
        "ff"
      ],
      [
        "h",
        "é"
      ],
      [
        "i",
        "é"
      ],
      [
        "i",
        "le"
      ],
      [
        "l",
        "ou"
      ],
      [
        "l",
        "it"
      ],
      [
        "m",
        "or"
      ],
      [
        "n",
        "es"
      ],
      [
        "v",
        "ain"
      ],
      [
        "re",
        "z"
      ],
      [
        "ch",
        "é"
      ],
      [
        "our",
        "s"
      ],
      [
        "co",
        "re"
      ],
      [
        "b",
        "li"
      ],
      [
        "c",
        "é"
      ],
      [
        "l",
        "an"
      ],
      [
        "o",
        "l"
      ],
      [
        "p",
        "é"
      ],
      [
        "r",
        "om"
      ],
      [
        "s",
        "oi"
      ],
      [
        "er",
        "s"
      ],
      [
        "tr",
        "av"
      ],
      [
        "av",
        "ent"
      ],
      [
        "tout",
        "es"
      ],
      [
        "res",
        "se"
      ],
      [
        "ter",
        "re"
      ],
      [
        "enf",
        "ants"
      ],
      [
        "fort",
        "une"
      ],
      [
        "dr",
        "oit"
      ],
      [
        "ani",
        "maux"
      ],
      [
        "b",
        "ois"
      ],
      [
        "l",
        "oin"
      ],
      [
        "m",
        "au"
      ],
      [
        "p",
        "ér"
      ],
      [
        "s",
        "oup"
      ],
      [
        "en",
        "core"
      ],
      [
        "re",
        "t"
      ],
      [
        "ce",
        "pendant"
      ],
      [
        "per",
        "son"
      ],
      [
        "pl",
        "ain"
      ],
      [
        "dis",
        "ait"
      ],
      [
        "pie",
        "ds"
      ],
      [
        "plais",
        "ir"
      ],
      [
        "f",
        "ou"
      ],
      [
        "g",
        "le"
      ],
      [
        "m",
        "our"
      ],
      [
        "m",
        "ont"
      ],
      [
        "t",
        "oi"
      ],
      [
        "es",
        "se"
      ],
      [
        "si",
        "re"
      ],
      [
        "jus",
        "qu"
      ],
      [
        "march",
        "and"
      ],
      [
        "grâ",
        "ce"
      ],
      [
        "b",
        "i"
      ],
      [
        "c",
        "it"
      ],
      [
        "v",
        "u"
      ],
      [
        "qu",
        "er"
      ],
      [
        "an",
        "de"
      ],
      [
        "tr",
        "és"
      ],
      [
        "aut",
        "ant"
      ],
      [
        "ier",
        "s"
      ],
      [
        "cor",
        "ps"
      ],
      [
        "main",
        "t"
      ],
      [
        "beau",
        "coup"
      ],
      [
        "fon",
        "d"
      ],
      [
        "prin",
        "ce"
      ],
      [
        "sin",
        "ge"
      ],
      [
        "g",
        "al"
      ],
      [
        "m",
        "ou"
      ],
      [
        "v",
        "rai"
      ],
      [
        "de",
        "z"
      ],
      [
        "qu",
        "ant"
      ],
      [
        "un",
        "i"
      ],
      [
        "pr",
        "en"
      ],
      [
        "su",
        "jet"
      ],
      [
        "mot",
        "s"
      ],
      [
        "f",
        "u"
      ],
      [
        "g",
        "ard"
      ],
      [
        "p",
        "orte"
      ],
      [
        "v",
        "ant"
      ],
      [
        "â",
        "me"
      ],
      [
        "ai",
        "gn"
      ],
      [
        "pr",
        "ét"
      ],
      [
        "ét",
        "aient"
      ],
      [
        "cr",
        "é"
      ],
      [
        "gr",
        "os"
      ],
      [
        "ple",
        "in"
      ],
      [
        "voi",
        "ci"
      ],
      [
        "ber",
        "ger"
      ],
      [
        ";",
        ";"
      ],
      [
        "b",
        "at"
      ],
      [
        "c",
        "am"
      ],
      [
        "oi",
        "seau"
      ],
      [
        "con",
        "tr"
      ],
      [
        "cr",
        "oy"
      ],
      [
        "ouv",
        "er"
      ],
      [
        "per",
        "d"
      ],
      [
        "lo",
        "gis"
      ],
      [
        "for",
        "ce"
      ],
      [
        "nat",
        "ure"
      ],
      [
        "h",
        "ér"
      ],
      [
        "m",
        "ille"
      ],
      [
        "p",
        "res"
      ],
      [
        "v",
        "é"
      ],
      [
        "v",
        "ais"
      ],
      [
        "é",
        "tr"
      ],
      [
        "ai",
        "se"
      ],
      [
        "il",
        "l"
      ],
      [
        "la",
        "t"
      ],
      [
        "ne",
        "z"
      ],
      [
        "tr",
        "om"
      ],
      [
        "tr",
        "oup"
      ],
      [
        "al",
        "ors"
      ],
      [
        "con",
        "tent"
      ],
      [
        "li",
        "e"
      ],
      [
        "li",
        "eux"
      ],
      [
        "cr",
        "u"
      ],
      [
        "ab",
        "les"
      ],
      [
        "ph",
        "il"
      ],
      [
        "ven",
        "ir"
      ],
      [
        "met",
        "tre"
      ],
      [
        "heure",
        "ux"
      ],
      [
        "b",
        "our"
      ],
      [
        "c",
        "s"
      ],
      [
        "c",
        "t"
      ],
      [
        "d",
        "an"
      ],
      [
        "f",
        "au"
      ],
      [
        "l",
        "oi"
      ],
      [
        "n",
        "er"
      ],
      [
        "r",
        "u"
      ],
      [
        "s",
        "ens"
      ],
      [
        "u",
        "le"
      ],
      [
        "ç",
        "on"
      ],
      [
        "tr",
        "u"
      ],
      [
        "son",
        "s"
      ],
      [
        "je",
        "une"
      ],
      [
        "ét",
        "é"
      ],
      [
        "com",
        "ment"
      ],
      [
        "ci",
        "el"
      ],
      [
        "quel",
        "ques"
      ],
      [
        "ex",
        "emp"
      ],
      [
        "sou",
        "ff"
      ],
      [
        "vois",
        "in"
      ],
      [
        "b",
        "es"
      ],
      [
        "d",
        "or"
      ],
      [
        "d",
        "ès"
      ],
      [
        "g",
        "a"
      ],
      [
        "m",
        "at"
      ],
      [
        "m",
        "out"
      ],
      [
        "r",
        "aient"
      ],
      [
        "t",
        "ôt"
      ],
      [
        "è",
        "me"
      ],
      [
        "ê",
        "t"
      ],
      [
        "ce",
        "ci"
      ],
      [
        "av",
        "aient"
      ],
      [
        "av",
        "ez"
      ],
      [
        "cr",
        "ois"
      ],
      [
        "ap",
        "pro"
      ],
      [
        "ap",
        "pe"
      ],
      [
        "ab",
        "ord"
      ],
      [
        "co",
        "l"
      ],
      [
        "pet",
        "its"
      ],
      [
        "prés",
        "ent"
      ],
      [
        "seign",
        "eur"
      ],
      [
        "avent",
        "ure"
      ],
      [
        "f",
        "s"
      ],
      [
        "h",
        "er"
      ],
      [
        "l",
        "les"
      ],
      [
        "p",
        "ut"
      ],
      [
        "r",
        "ou"
      ],
      [
        "t",
        "h"
      ],
      [
        "è",
        "te"
      ],
      [
        "é",
        "ch"
      ],
      [
        "ai",
        "m"
      ],
      [
        "si",
        "eurs"
      ],
      [
        "pas",
        "se"
      ],
      [
        "cr",
        "ut"
      ],
      [
        "ouv",
        "r"
      ],
      [
        "ma",
        "ge"
      ],
      [
        "mais",
        "on"
      ],
      [
        "ti",
        "ent"
      ],
      [
        "dev",
        "ant"
      ],
      [
        "pet",
        "it"
      ],
      [
        "hab",
        "it"
      ],
      [
        "b",
        "les"
      ],
      [
        "b",
        "ut"
      ],
      [
        "m",
        "om"
      ],
      [
        "m",
        "ère"
      ],
      [
        "r",
        "o"
      ],
      [
        "œ",
        "u"
      ],
      [
        "au",
        "rait"
      ],
      [
        "te",
        "z"
      ],
      [
        "des",
        "sus"
      ],
      [
        "con",
        "se"
      ],
      [
        "..",
        "."
      ],
      [
        "fais",
        "ait"
      ],
      [
        "donn",
        "er"
      ],
      [
        "som",
        "me"
      ],
      [
        "honn",
        "eur"
      ],
      [
        "c",
        "au"
      ],
      [
        "e",
        "mb"
      ],
      [
        "l",
        "ors"
      ],
      [
        "o",
        "pe"
      ],
      [
        "p",
        "eur"
      ],
      [
        "s",
        "t"
      ],
      [
        "t",
        "ir"
      ],
      [
        "v",
        "is"
      ],
      [
        "v",
        "res"
      ],
      [
        "v",
        "int"
      ],
      [
        "v",
        "iens"
      ],
      [
        "é",
        "pou"
      ],
      [
        "en",
        "du"
      ],
      [
        "re",
        "tour"
      ],
      [
        "tr",
        "ou"
      ],
      [
        "cr",
        "i"
      ],
      [
        "di",
        "ff"
      ],
      [
        "dé",
        "f"
      ],
      [
        "ser",
        "ait"
      ],
      [
        "ap",
        "er"
      ],
      [
        "ment",
        "s"
      ],
      [
        "cher",
        "cher"
      ],
      [
        "dou",
        "x"
      ],
      [
        "nouv",
        "eau"
      ],
      [
        "b",
        "ête"
      ],
      [
        "d",
        "ra"
      ],
      [
        "j",
        "à"
      ],
      [
        "n",
        "ul"
      ],
      [
        "p",
        "in"
      ],
      [
        "s",
        "orte"
      ],
      [
        "t",
        "ort"
      ],
      [
        "se",
        "ule"
      ],
      [
        "ch",
        "es"
      ],
      [
        "ch",
        "iens"
      ],
      [
        "son",
        "ge"
      ],
      [
        "av",
        "is"
      ],
      [
        "al",
        "l"
      ],
      [
        "cr",
        "ain"
      ],
      [
        "vi",
        "eux"
      ],
      [
        "ser",
        "t"
      ],
      [
        "hom",
        "mes"
      ],
      [
        "ag",
        "ne"
      ],
      [
        "trouv",
        "a"
      ],
      [
        "ju",
        "ge"
      ],
      [
        "voi",
        "x"
      ],
      [
        "semb",
        "la"
      ],
      [
        "d",
        "ent"
      ],
      [
        "d",
        "am"
      ],
      [
        "h",
        "eur"
      ],
      [
        "h",
        "ist"
      ],
      [
        "n",
        "a"
      ],
      [
        "s",
        "se"
      ],
      [
        "è",
        "vre"
      ],
      [
        "en",
        "ne"
      ],
      [
        "te",
        "lle"
      ],
      [
        "tr",
        "ès"
      ],
      [
        "par",
        "mi"
      ],
      [
        "pas",
        "ser"
      ],
      [
        "am",
        "is"
      ],
      [
        "cr",
        "o"
      ],
      [
        "dé",
        "jà"
      ],
      [
        "pu",
        "bli"
      ],
      [
        "mar",
        "i"
      ],
      [
        "br",
        "uit"
      ],
      [
        "auc",
        "un"
      ],
      [
        "qua",
        "tre"
      ],
      [
        "trés",
        "or"
      ],
      [
        "g",
        "re"
      ],
      [
        "h",
        "ar"
      ],
      [
        "m",
        "ir"
      ],
      [
        "m",
        "ér"
      ],
      [
        "ai",
        "gle"
      ],
      [
        "qu",
        "et"
      ],
      [
        "ch",
        "asse"
      ],
      [
        "as",
        "s"
      ],
      [
        "end",
        "s"
      ],
      [
        "res",
        "te"
      ],
      [
        "quel",
        "qu"
      ],
      [
        "voy",
        "ant"
      ],
      [
        "trouv",
        "e"
      ],
      [
        "port",
        "er"
      ],
      [
        "grand",
        "s"
      ],
      [
        "pri",
        "x"
      ],
      [
        "cha",
        "que"
      ],
      [
        "premi",
        "er"
      ],
      [
        "dem",
        "eure"
      ],
      [
        "hist",
        "oire"
      ],
      [
        "a",
        "dieu"
      ],
      [
        "c",
        "l"
      ],
      [
        "f",
        "oi"
      ],
      [
        "l",
        "ent"
      ],
      [
        "m",
        "u"
      ],
      [
        "o",
        "eu"
      ],
      [
        "p",
        "ens"
      ],
      [
        "r",
        "is"
      ],
      [
        "r",
        "oit"
      ],
      [
        "re",
        "prit"
      ],
      [
        "ce",
        "au"
      ],
      [
        "tre",
        "s"
      ],
      [
        "des",
        "tin"
      ],
      [
        "al",
        "ler"
      ],
      [
        "pour",
        "quoi"
      ],
      [
        "dé",
        "li"
      ],
      [
        "pe",
        "in"
      ],
      [
        "gu",
        "erre"
      ],
      [
        "co",
        "eur"
      ],
      [
        "soin",
        "s"
      ],
      [
        "d",
        "ents"
      ],
      [
        "f",
        "ût"
      ],
      [
        "i",
        "que"
      ],
      [
        "m",
        "orte"
      ],
      [
        "p",
        "è"
      ],
      [
        "p",
        "ai"
      ],
      [
        "p",
        "ent"
      ],
      [
        "p",
        "ot"
      ],
      [
        "de",
        "man"
      ],
      [
        "ent",
        "ôt"
      ],
      [
        "is",
        "te"
      ],
      [
        "cr",
        "oit"
      ],
      [
        "end",
        "roit"
      ],
      [
        "ci",
        "eux"
      ],
      [
        "che",
        "val"
      ],
      [
        "mes",
        "sieurs"
      ],
      [
        "enf",
        "ant"
      ],
      [
        "man",
        "ger"
      ],
      [
        "voy",
        "ez"
      ],
      [
        "so",
        "le"
      ],
      [
        "tel",
        "s"
      ],
      [
        "pen",
        "se"
      ],
      [
        "avant",
        "age"
      ],
      [
        "bi",
        "entôt"
      ],
      [
        "c",
        "ès"
      ],
      [
        "f",
        "o"
      ],
      [
        "f",
        "ille"
      ],
      [
        "h",
        "i"
      ],
      [
        "s",
        "c"
      ],
      [
        "v",
        "eu"
      ],
      [
        "è",
        "le"
      ],
      [
        "an",
        "e"
      ],
      [
        "il",
        "la"
      ],
      [
        "is",
        "se"
      ],
      [
        "at",
        "ion"
      ],
      [
        "gr",
        "ande"
      ],
      [
        "che",
        "min"
      ],
      [
        "oy",
        "en"
      ],
      [
        "trouv",
        "er"
      ],
      [
        "hu",
        "mains"
      ],
      [
        "ob",
        "jet"
      ],
      [
        "comm",
        "un"
      ],
      [
        "semb",
        "le"
      ],
      [
        "exemp",
        "le"
      ],
      [
        "mom",
        "ent"
      ],
      [
        "sole",
        "il"
      ],
      [
        "c",
        "la"
      ],
      [
        "d",
        "om"
      ],
      [
        "m",
        "ét"
      ],
      [
        "m",
        "eur"
      ],
      [
        "o",
        "le"
      ],
      [
        "p",
        "at"
      ],
      [
        "t",
        "ien"
      ],
      [
        "â",
        "ge"
      ],
      [
        "re",
        "mp"
      ],
      [
        "re",
        "ux"
      ],
      [
        "il",
        "lar"
      ],
      [
        "se",
        "lon"
      ],
      [
        "pour",
        "tant"
      ],
      [
        "di",
        "e"
      ],
      [
        "gr",
        "i"
      ],
      [
        "pe",
        "au"
      ],
      [
        "tant",
        "ôt"
      ],
      [
        "dr",
        "ait"
      ],
      [
        "nu",
        "it"
      ],
      [
        "jus",
        "te"
      ],
      [
        "tom",
        "b"
      ],
      [
        "uni",
        "vers"
      ],
      [
        "cau",
        "se"
      ],
      [
        "épou",
        "x"
      ],
      [
        "seule",
        "ment"
      ],
      [
        "a",
        "de"
      ],
      [
        "b",
        "l"
      ],
      [
        "d",
        "oit"
      ],
      [
        "f",
        "ri"
      ],
      [
        "h",
        "y"
      ],
      [
        "r",
        "ats"
      ],
      [
        "v",
        "ont"
      ],
      [
        "ê",
        "ts"
      ],
      [
        "ô",
        "te"
      ],
      [
        "re",
        "gard"
      ],
      [
        "que",
        "lle"
      ],
      [
        "lu",
        "s"
      ],
      [
        "si",
        "on"
      ],
      [
        "si",
        "eur"
      ],
      [
        "av",
        "er"
      ],
      [
        "par",
        "tit"
      ],
      [
        "al",
        "la"
      ],
      [
        "du",
        "c"
      ],
      [
        "con",
        "te"
      ],
      [
        "ser",
        "a"
      ],
      [
        "ces",
        "s"
      ],
      [
        "autre",
        "fois"
      ],
      [
        "mon",
        "sieur"
      ],
      [
        "cour",
        "ir"
      ],
      [
        "pro",
        "pre"
      ],
      [
        "ti",
        "re"
      ],
      [
        "dis",
        "cours"
      ],
      [
        "main",
        "te"
      ],
      [
        "ren",
        "contre"
      ],
      [
        "cer",
        "f"
      ],
      [
        "man",
        "ière"
      ],
      [
        "lé",
        "g"
      ],
      [
        "coup",
        "s"
      ],
      [
        "vou",
        "lut"
      ],
      [
        "ob",
        "li"
      ],
      [
        "el",
        "les"
      ],
      [
        "esprit",
        "s"
      ],
      [
        "gar",
        "de"
      ],
      [
        "erre",
        "ur"
      ],
      [
        "........",
        "...."
      ],
      [
        "bes",
        "oin"
      ],
      [
        "l",
        "ois"
      ],
      [
        "n",
        "ent"
      ],
      [
        "n",
        "ier"
      ],
      [
        "p",
        "al"
      ],
      [
        "r",
        "on"
      ],
      [
        "r",
        "it"
      ],
      [
        "r",
        "ois"
      ],
      [
        "s",
        "û"
      ],
      [
        "v",
        "ille"
      ],
      [
        "pr",
        "u"
      ],
      [
        "par",
        "tout"
      ],
      [
        "sa",
        "ges"
      ],
      [
        "vo",
        "l"
      ],
      [
        "gr",
        "en"
      ],
      [
        "su",
        "ff"
      ],
      [
        "aut",
        "our"
      ],
      [
        "co",
        "q"
      ],
      [
        "ex",
        "tr"
      ],
      [
        "lé",
        "ph"
      ],
      [
        "sort",
        "ir"
      ],
      [
        "trait",
        "s"
      ],
      [
        "font",
        "aine"
      ],
      [
        "conn",
        "ais"
      ],
      [
        "pay",
        "s"
      ],
      [
        "serv",
        "ir"
      ],
      [
        "rép",
        "on"
      ],
      [
        "dan",
        "ger"
      ],
      [
        "pai",
        "x"
      ],
      [
        "b",
        "u"
      ],
      [
        "b",
        "ât"
      ],
      [
        "b",
        "ord"
      ],
      [
        "d",
        "ét"
      ],
      [
        "d",
        "ir"
      ],
      [
        "f",
        "av"
      ],
      [
        "f",
        "lat"
      ],
      [
        "h",
        "ôt"
      ],
      [
        "j",
        "ard"
      ],
      [
        "m",
        "ois"
      ],
      [
        "n",
        "age"
      ],
      [
        "p",
        "on"
      ],
      [
        "p",
        "ose"
      ],
      [
        "t",
        "â"
      ],
      [
        "re",
        "partit"
      ],
      [
        "on",
        "ne"
      ],
      [
        "de",
        "mi"
      ],
      [
        "qu",
        "eu"
      ],
      [
        "se",
        "c"
      ],
      [
        "eu",
        "se"
      ],
      [
        "ch",
        "au"
      ],
      [
        "om",
        "bre"
      ],
      [
        "ur",
        "ent"
      ],
      [
        "si",
        "r"
      ],
      [
        "al",
        "ou"
      ],
      [
        "ét",
        "at"
      ],
      [
        "plu",
        "tôt"
      ],
      [
        "su",
        "c"
      ],
      [
        "bien",
        "s"
      ],
      [
        "gn",
        "é"
      ],
      [
        "gu",
        "ère"
      ],
      [
        "mal",
        "heureux"
      ],
      [
        "ti",
        "rer"
      ],
      [
        "vie",
        "illar"
      ],
      [
        "sé",
        "jour"
      ],
      [
        "nu",
        "lle"
      ],
      [
        "att",
        "a"
      ],
      [
        "né",
        "cess"
      ],
      [
        "ign",
        "or"
      ],
      [
        "arri",
        "ve"
      ],
      [
        "let",
        "te"
      ],
      [
        "hé",
        "las"
      ],
      [
        "her",
        "be"
      ],
      [
        "extr",
        "ême"
      ],
      [
        "queu",
        "e"
      ],
      [
        ")",
        ","
      ],
      [
        "d",
        "avantage"
      ],
      [
        "e",
        "aux"
      ],
      [
        "h",
        "ait"
      ],
      [
        "h",
        "as"
      ],
      [
        "m",
        "il"
      ],
      [
        "r",
        "ir"
      ],
      [
        "r",
        "endre"
      ],
      [
        "s",
        "ang"
      ],
      [
        "v",
        "ér"
      ],
      [
        "è",
        "de"
      ],
      [
        "è",
        "ne"
      ],
      [
        "en",
        "se"
      ],
      [
        "ar",
        "bre"
      ],
      [
        "pr",
        "oie"
      ],
      [
        "me",
        "un"
      ],
      [
        "ge",
        "ance"
      ],
      [
        "pas",
        "sé"
      ],
      [
        "pas",
        "sant"
      ],
      [
        "di",
        "vers"
      ],
      [
        "su",
        "l"
      ],
      [
        "ci",
        "er"
      ],
      [
        "be",
        "aux"
      ],
      [
        "pro",
        "fit"
      ],
      [
        "mal",
        "heur"
      ],
      [
        "voy",
        "age"
      ],
      [
        "br",
        "as"
      ],
      [
        "som",
        "mes"
      ],
      [
        "person",
        "ne"
      ],
      [
        "mout",
        "on"
      ],
      [
        "illa",
        "ge"
      ],
      [
        ".",
        "\""
      ],
      [
        "a",
        "h"
      ],
      [
        "a",
        "fin"
      ],
      [
        "b",
        "au"
      ],
      [
        "b",
        "ons"
      ],
      [
        "c",
        "ur"
      ],
      [
        "c",
        "ul"
      ],
      [
        "f",
        "am"
      ],
      [
        "f",
        "irent"
      ],
      [
        "g",
        "ale"
      ],
      [
        "h",
        "or"
      ],
      [
        "j",
        "a"
      ],
      [
        "n",
        "our"
      ],
      [
        "n",
        "ée"
      ],
      [
        "s",
        "av"
      ],
      [
        "s",
        "ance"
      ],
      [
        "t",
        "al"
      ],
      [
        "t",
        "eur"
      ],
      [
        "œ",
        "ur"
      ],
      [
        "en",
        "nu"
      ],
      [
        "le",
        "ts"
      ],
      [
        "ai",
        "de"
      ],
      [
        "oi",
        "se"
      ],
      [
        "ch",
        "ait"
      ],
      [
        "que",
        "re"
      ],
      [
        "in",
        "aire"
      ],
      [
        "me",
        "il"
      ],
      [
        "par",
        "ler"
      ],
      [
        "at",
        "tr"
      ],
      [
        "at",
        "eur"
      ],
      [
        "des",
        "c"
      ],
      [
        "cr",
        "ier"
      ],
      [
        "mon",
        "tre"
      ],
      [
        "gn",
        "er"
      ],
      [
        "pl",
        "aire"
      ],
      [
        "quelque",
        "fois"
      ],
      [
        "fr",
        "ère"
      ],
      [
        "ag",
        "es"
      ],
      [
        "vou",
        "lait"
      ],
      [
        "met",
        "s"
      ],
      [
        "cert",
        "aine"
      ],
      [
        "ord",
        "inaire"
      ],
      [
        "sou",
        "hait"
      ],
      [
        "imp",
        "ort"
      ],
      [
        "conn",
        "a"
      ],
      [
        "sui",
        "v"
      ],
      [
        "b",
        "is"
      ],
      [
        "c",
        "an"
      ],
      [
        "c",
        "ure"
      ],
      [
        "g",
        "t"
      ],
      [
        "i",
        "ons"
      ],
      [
        "l",
        "è"
      ],
      [
        "m",
        "ée"
      ],
      [
        "o",
        "h"
      ],
      [
        "o",
        "de"
      ],
      [
        "s",
        "at"
      ],
      [
        "t",
        "ait"
      ],
      [
        "â",
        "te"
      ],
      [
        "œ",
        "urs"
      ],
      [
        "en",
        "vie"
      ],
      [
        "au",
        "jour"
      ],
      [
        "tr",
        "iste"
      ],
      [
        "si",
        "mp"
      ],
      [
        "par",
        "le"
      ],
      [
        "li",
        "èvre"
      ],
      [
        "vo",
        "leurs"
      ],
      [
        "cr",
        "is"
      ],
      [
        "end",
        "ait"
      ],
      [
        "vi",
        "vre"
      ],
      [
        "su",
        "p"
      ],
      [
        "ma",
        "la"
      ],
      [
        "ma",
        "dame"
      ],
      [
        "ces",
        "se"
      ],
      [
        "fait",
        "e"
      ],
      [
        "mon",
        "ar"
      ],
      [
        "be",
        "c"
      ],
      [
        "pro",
        "pos"
      ],
      [
        "emp",
        "ort"
      ],
      [
        "vou",
        "lez"
      ],
      [
        "loup",
        "s"
      ],
      [
        "hu",
        "i"
      ],
      [
        "tour",
        "s"
      ],
      [
        "fais",
        "ant"
      ],
      [
        "sour",
        "ce"
      ],
      [
        "pla",
        "ît"
      ],
      [
        "pouv",
        "ait"
      ],
      [
        "gl",
        "oire"
      ],
      [
        "eff",
        "ort"
      ],
      [
        "mour",
        "ir"
      ],
      [
        "étr",
        "ang"
      ],
      [
        "conse",
        "il"
      ],
      [
        "aper",
        "ç"
      ],
      [
        "enne",
        "mi"
      ],
      [
        "morte",
        "l"
      ],
      [
        "léph",
        "ant"
      ],
      [
        "vieillar",
        "d"
      ],
      [
        "meun",
        "ier"
      ],
      [
        "aujour",
        "d"
      ],
      [
        "a",
        "te"
      ],
      [
        "c",
        "ôt"
      ],
      [
        "e",
        "h"
      ],
      [
        "h",
        "on"
      ],
      [
        "i",
        "ce"
      ],
      [
        "i",
        "mage"
      ],
      [
        "j",
        "oie"
      ],
      [
        "m",
        "ait"
      ],
      [
        "m",
        "oit"
      ],
      [
        "m",
        "ite"
      ],
      [
        "m",
        "oyen"
      ],
      [
        "r",
        "as"
      ],
      [
        "r",
        "am"
      ],
      [
        "r",
        "ap"
      ],
      [
        "v",
        "illage"
      ],
      [
        "é",
        "cou"
      ],
      [
        "û",
        "te"
      ],
      [
        "an",
        "ge"
      ],
      [
        "je",
        "un"
      ],
      [
        "ain",
        "s"
      ],
      [
        "vi",
        "v"
      ],
      [
        "dé",
        "faut"
      ],
      [
        "su",
        "it"
      ],
      [
        "ser",
        "pent"
      ],
      [
        "ille",
        "r"
      ],
      [
        "ré",
        "cit"
      ],
      [
        "ti",
        "on"
      ],
      [
        "man",
        "ge"
      ],
      [
        "ra",
        "ce"
      ],
      [
        "fr",
        "an"
      ],
      [
        "vou",
        "l"
      ],
      [
        "moin",
        "dre"
      ],
      [
        "bre",
        "bis"
      ],
      [
        "dou",
        "ble"
      ],
      [
        "voi",
        "e"
      ],
      [
        "pri",
        "se"
      ],
      [
        "trait",
        "e"
      ],
      [
        "pen",
        "ser"
      ],
      [
        "tom",
        "be"
      ],
      [
        "ten",
        "ir"
      ],
      [
        "premi",
        "ère"
      ],
      [
        "go",
        "ût"
      ],
      [
        "cham",
        "ps"
      ],
      [
        "ad",
        "resse"
      ],
      [
        "ore",
        "illes"
      ],
      [
        "mau",
        "dit"
      ],
      [
        "hér",
        "os"
      ],
      [
        "pres",
        "que"
      ],
      [
        "troup",
        "eau"
      ],
      [
        "ouvr",
        "age"
      ],
      [
        "diff",
        "ér"
      ],
      [
        "has",
        "ard"
      ],
      [
        "quere",
        "lle"
      ],
      [
        "a",
        "ch"
      ],
      [
        "c",
        "ab"
      ],
      [
        "d",
        "ence"
      ],
      [
        "f",
        "eu"
      ],
      [
        "f",
        "allait"
      ],
      [
        "i",
        "se"
      ],
      [
        "l",
        "ot"
      ],
      [
        "m",
        "ons"
      ],
      [
        "r",
        "és"
      ],
      [
        "t",
        "ér"
      ],
      [
        "t",
        "iens"
      ],
      [
        "u",
        "de"
      ],
      [
        "v",
        "aux"
      ],
      [
        "v",
        "aut"
      ],
      [
        "v",
        "age"
      ],
      [
        "x",
        "e"
      ],
      [
        "ç",
        "ons"
      ],
      [
        "é",
        "p"
      ],
      [
        "re",
        "pas"
      ],
      [
        "de",
        "t"
      ],
      [
        "ch",
        "ap"
      ],
      [
        "in",
        "gr"
      ],
      [
        "in",
        "ter"
      ],
      [
        "ais",
        "é"
      ],
      [
        "tr",
        "ans"
      ],
      [
        "du",
        "it"
      ],
      [
        "pour",
        "rait"
      ],
      [
        "ir",
        "ait"
      ],
      [
        "li",
        "er"
      ],
      [
        "com",
        "bat"
      ],
      [
        "ac",
        "le"
      ],
      [
        "pro",
        "fon"
      ],
      [
        "mb",
        "le"
      ],
      [
        "voy",
        "ait"
      ],
      [
        "oy",
        "ez"
      ],
      [
        "vit",
        "e"
      ],
      [
        "comm",
        "une"
      ],
      [
        "mer",
        "ve"
      ],
      [
        "certain",
        "s"
      ],
      [
        "pla",
        "ce"
      ],
      [
        "pie",
        "d"
      ],
      [
        "oc",
        "cu"
      ],
      [
        "chan",
        "ge"
      ],
      [
        "chan",
        "ger"
      ],
      [
        "arr",
        "ê"
      ],
      [
        "eff",
        "et"
      ],
      [
        "mau",
        "vais"
      ],
      [
        "plain",
        "te"
      ],
      [
        ";;",
        ";;"
      ],
      [
        "cam",
        "pa"
      ],
      [
        "chasse",
        "ur"
      ],
      [
        "deman",
        "de"
      ],
      [
        "fo",
        "lie"
      ],
      [
        "............",
        "."
      ],
      [
        "gren",
        "ou"
      ],
      [
        "jard",
        "in"
      ],
      [
        "b",
        "it"
      ],
      [
        "c",
        "re"
      ],
      [
        "d",
        "ons"
      ],
      [
        "f",
        "ar"
      ],
      [
        "f",
        "at"
      ],
      [
        "f",
        "us"
      ],
      [
        "f",
        "asse"
      ],
      [
        "f",
        "aim"
      ],
      [
        "g",
        "as"
      ],
      [
        "h",
        "ôte"
      ],
      [
        "n",
        "ô"
      ],
      [
        "o",
        "les"
      ],
      [
        "p",
        "ât"
      ],
      [
        "r",
        "ont"
      ],
      [
        "s",
        "al"
      ],
      [
        "t",
        "est"
      ],
      [
        "y",
        "mp"
      ],
      [
        "â",
        "tre"
      ],
      [
        "é",
        "mon"
      ],
      [
        "î",
        "te"
      ],
      [
        "ai",
        "me"
      ],
      [
        "de",
        "dans"
      ],
      [
        "et",
        "ait"
      ],
      [
        "se",
        "z"
      ],
      [
        "se",
        "in"
      ],
      [
        "ar",
        "ade"
      ],
      [
        "ch",
        "oi"
      ],
      [
        "ch",
        "as"
      ],
      [
        "in",
        "vent"
      ],
      [
        "tr",
        "an"
      ],
      [
        "du",
        "re"
      ],
      [
        "li",
        "vre"
      ],
      [
        "am",
        "ent"
      ],
      [
        "su",
        "t"
      ],
      [
        "ma",
        "ch"
      ],
      [
        "fait",
        "es"
      ],
      [
        "os",
        "es"
      ],
      [
        "és",
        "ope"
      ],
      [
        "ri",
        "re"
      ],
      [
        "cour",
        "rou"
      ],
      [
        "temp",
        "le"
      ],
      [
        "emp",
        "ê"
      ],
      [
        "dou",
        "ce"
      ],
      [
        "cu",
        "le"
      ],
      [
        "pit",
        "ié"
      ],
      [
        "donn",
        "a"
      ],
      [
        "tom",
        "ber"
      ],
      [
        "nouv",
        "elle"
      ],
      [
        "fa",
        "çon"
      ],
      [
        "pare",
        "ils"
      ],
      [
        "compagn",
        "on"
      ],
      [
        "compagn",
        "ons"
      ],
      [
        "cham",
        "p"
      ],
      [
        "vin",
        "gt"
      ],
      [
        "écr",
        "it"
      ],
      [
        "mou",
        "che"
      ],
      [
        "croy",
        "ait"
      ],
      [
        "ouver",
        "t"
      ],
      [
        "sembla",
        "ble"
      ],
      [
        "oeu",
        "f"
      ],
      [
        "pal",
        "ais"
      ],
      [
        "vol",
        "ont"
      ],
      [
        "ja",
        "dis"
      ],
      [
        "meil",
        "leur"
      ],
      [
        "moit",
        "ié"
      ],
      [
        "b",
        "or"
      ],
      [
        "b",
        "res"
      ],
      [
        "b",
        "ats"
      ],
      [
        "c",
        "ir"
      ],
      [
        "d",
        "ant"
      ],
      [
        "f",
        "ous"
      ],
      [
        "i",
        "de"
      ],
      [
        "l",
        "is"
      ],
      [
        "p",
        "t"
      ],
      [
        "p",
        "ous"
      ],
      [
        "p",
        "li"
      ],
      [
        "p",
        "ire"
      ],
      [
        "r",
        "ons"
      ],
      [
        "s",
        "oir"
      ],
      [
        "s",
        "avoir"
      ],
      [
        "t",
        "ard"
      ],
      [
        "t",
        "int"
      ],
      [
        "y",
        "er"
      ],
      [
        "é",
        "lo"
      ],
      [
        "re",
        "m"
      ],
      [
        "de",
        "main"
      ],
      [
        "au",
        "rais"
      ],
      [
        "au",
        "tru"
      ],
      [
        "oi",
        "si"
      ],
      [
        "si",
        "er"
      ],
      [
        "ien",
        "ce"
      ],
      [
        "je",
        "an"
      ],
      [
        "al",
        "lez"
      ],
      [
        "ét",
        "onn"
      ],
      [
        "con",
        "ter"
      ],
      [
        "am",
        "ant"
      ],
      [
        "ap",
        "prendre"
      ],
      [
        "fait",
        "s"
      ],
      [
        "ff",
        "e"
      ],
      [
        "aut",
        "é"
      ],
      [
        "aut",
        "eur"
      ],
      [
        "mi",
        "ne"
      ],
      [
        "ac",
        "cor"
      ],
      [
        "per",
        "du"
      ],
      [
        "moi",
        "ne"
      ],
      [
        "dis",
        "ant"
      ],
      [
        "vie",
        "ille"
      ],
      [
        "cu",
        "is"
      ],
      [
        "int",
        "ér"
      ],
      [
        "so",
        "l"
      ],
      [
        "fem",
        "mes"
      ],
      [
        "prend",
        "s"
      ],
      [
        "app",
        "ét"
      ],
      [
        "app",
        "elle"
      ],
      [
        "gé",
        "n"
      ],
      [
        "pouv",
        "oir"
      ],
      [
        "dem",
        "and"
      ],
      [
        "laisse",
        "z"
      ],
      [
        "ore",
        "ille"
      ],
      [
        "cré",
        "at"
      ],
      [
        "cam",
        "arade"
      ],
      [
        "voisin",
        "age"
      ],
      [
        "mout",
        "ons"
      ],
      [
        "col",
        "ère"
      ],
      [
        "sû",
        "r"
      ],
      [
        "nécess",
        "aire"
      ],
      [
        "bau",
        "det"
      ],
      [
        "monar",
        "que"
      ],
      [
        "a",
        "lar"
      ],
      [
        "b",
        "é"
      ],
      [
        "c",
        "at"
      ],
      [
        "c",
        "li"
      ],
      [
        "c",
        "ouv"
      ],
      [
        "d",
        "irent"
      ],
      [
        "e",
        "il"
      ],
      [
        "f",
        "al"
      ],
      [
        "f",
        "ier"
      ],
      [
        "f",
        "ure"
      ],
      [
        "f",
        "ables"
      ],
      [
        "i",
        "eux"
      ],
      [
        "m",
        "ê"
      ],
      [
        "p",
        "es"
      ],
      [
        "p",
        "ois"
      ],
      [
        "p",
        "ap"
      ],
      [
        "r",
        "age"
      ],
      [
        "r",
        "oy"
      ],
      [
        "r",
        "onde"
      ],
      [
        "s",
        "ée"
      ],
      [
        "t",
        "is"
      ],
      [
        "y",
        "th"
      ],
      [
        "y",
        "sse"
      ],
      [
        "é",
        "car"
      ],
      [
        "î",
        "n"
      ],
      [
        "en",
        "dez"
      ],
      [
        "ai",
        "e"
      ],
      [
        "it",
        "és"
      ],
      [
        "au",
        "rai"
      ],
      [
        "et",
        "ier"
      ],
      [
        "il",
        "lon"
      ],
      [
        "la",
        "m"
      ],
      [
        "ent",
        "our"
      ],
      [
        "se",
        "cours"
      ],
      [
        "ch",
        "i"
      ],
      [
        "ch",
        "ère"
      ],
      [
        "or",
        "is"
      ],
      [
        "ne",
        "ment"
      ],
      [
        "pr",
        "ê"
      ],
      [
        "pr",
        "ie"
      ],
      [
        "tr",
        "on"
      ],
      [
        "si",
        "è"
      ],
      [
        "par",
        "ut"
      ],
      [
        "par",
        "ti"
      ],
      [
        "at",
        "te"
      ],
      [
        "du",
        "s"
      ],
      [
        "con",
        "si"
      ],
      [
        "con",
        "dam"
      ],
      [
        "cr",
        "oire"
      ],
      [
        "su",
        "b"
      ],
      [
        "ut",
        "ile"
      ],
      [
        "be",
        "lette"
      ],
      [
        "gn",
        "ée"
      ],
      [
        "ri",
        "e"
      ],
      [
        "ac",
        "cour"
      ],
      [
        "pro",
        "cès"
      ],
      [
        "ie",
        "z"
      ],
      [
        "ra",
        "re"
      ],
      [
        "ra",
        "ges"
      ],
      [
        "avec",
        "que"
      ],
      [
        "fr",
        "ères"
      ],
      [
        "ul",
        "ysse"
      ],
      [
        "emp",
        "orte"
      ],
      [
        "emp",
        "ire"
      ],
      [
        "ven",
        "ez"
      ],
      [
        "ag",
        "it"
      ],
      [
        "ju",
        "ger"
      ],
      [
        "quoi",
        "que"
      ],
      [
        "lo",
        "ger"
      ],
      [
        "dou",
        "te"
      ],
      [
        "lais",
        "ser"
      ],
      [
        "att",
        "end"
      ],
      [
        "dev",
        "ait"
      ],
      [
        "mis",
        "ér"
      ],
      [
        "pos",
        "sé"
      ],
      [
        "char",
        "ge"
      ],
      [
        "der",
        "nier"
      ],
      [
        "men",
        "a"
      ],
      [
        "bas",
        "sa"
      ],
      [
        "jou",
        "ir"
      ],
      [
        "ol",
        "ymp"
      ],
      [
        "trav",
        "ail"
      ],
      [
        "trom",
        "per"
      ],
      [
        "fau",
        "te"
      ],
      [
        "mat",
        "in"
      ],
      [
        "œu",
        "f"
      ],
      [
        "emb",
        "arr"
      ],
      [
        "lors",
        "que"
      ],
      [
        "retour",
        "ne"
      ],
      [
        "publi",
        "que"
      ],
      [
        "obli",
        "ge"
      ],
      [
        "ignor",
        "ant"
      ],
      [
        "sav",
        "etier"
      ],
      [
        "mala",
        "de"
      ],
      [
        "mach",
        "ine"
      ],
      [
        "courrou",
        "x"
      ],
      [
        "autru",
        "i"
      ],
      [
        "fal",
        "lut"
      ],
      [
        "fure",
        "ur"
      ],
      [
        "a",
        "re"
      ],
      [
        "a",
        "gré"
      ],
      [
        "b",
        "â"
      ],
      [
        "b",
        "ar"
      ],
      [
        "b",
        "us"
      ],
      [
        "b",
        "auc"
      ],
      [
        "b",
        "lan"
      ],
      [
        "c",
        "is"
      ],
      [
        "c",
        "oin"
      ],
      [
        "c",
        "ér"
      ],
      [
        "d",
        "au"
      ],
      [
        "d",
        "oi"
      ],
      [
        "d",
        "ait"
      ],
      [
        "f",
        "e"
      ],
      [
        "f",
        "il"
      ],
      [
        "f",
        "est"
      ],
      [
        "f",
        "orte"
      ],
      [
        "h",
        "ir"
      ],
      [
        "j",
        "est"
      ],
      [
        "o",
        "ph"
      ],
      [
        "p",
        "ier"
      ],
      [
        "p",
        "ût"
      ],
      [
        "p",
        "leurs"
      ],
      [
        "s",
        "or"
      ],
      [
        "s",
        "ain"
      ],
      [
        "s",
        "avait"
      ],
      [
        "s",
        "out"
      ],
      [
        "s",
        "ants"
      ],
      [
        "s",
        "oyez"
      ],
      [
        "t",
        "aire"
      ],
      [
        "y",
        "r"
      ],
      [
        "ou",
        "ï"
      ],
      [
        "re",
        "ç"
      ],
      [
        "de",
        "puis"
      ],
      [
        "de",
        "ven"
      ],
      [
        "er",
        "mite"
      ],
      [
        "es",
        "ope"
      ],
      [
        "la",
        "pin"
      ],
      [
        "se",
        "con"
      ],
      [
        "ch",
        "ants"
      ],
      [
        "ch",
        "oses"
      ],
      [
        "is",
        "ans"
      ],
      [
        "pr",
        "êt"
      ],
      [
        "as",
        "sur"
      ],
      [
        "av",
        "eu"
      ],
      [
        "par",
        "a"
      ],
      [
        "des",
        "sein"
      ],
      [
        "al",
        "ité"
      ],
      [
        "du",
        "ire"
      ],
      [
        "con",
        "c"
      ],
      [
        "con",
        "s"
      ],
      [
        "dit",
        "es"
      ],
      [
        "cr",
        "aign"
      ],
      [
        "di",
        "se"
      ],
      [
        "plu",
        "t"
      ],
      [
        "dé",
        "ch"
      ],
      [
        "gr",
        "as"
      ],
      [
        "su",
        "re"
      ],
      [
        "su",
        "per"
      ],
      [
        "ma",
        "jest"
      ],
      [
        "ap",
        "par"
      ],
      [
        "sur",
        "tout"
      ],
      [
        "ac",
        "cou"
      ],
      [
        "cour",
        "age"
      ],
      [
        "oir",
        "s"
      ],
      [
        "ver",
        "t"
      ],
      [
        "per",
        "te"
      ],
      [
        "tant",
        "s"
      ],
      [
        "mal",
        "gré"
      ],
      [
        "pl",
        "aign"
      ],
      [
        "cor",
        "beau"
      ],
      [
        "cher",
        "che"
      ],
      [
        "fr",
        "ais"
      ],
      [
        "trouv",
        "ant"
      ],
      [
        "hu",
        "meur"
      ],
      [
        "nu",
        "e"
      ],
      [
        "comm",
        "en"
      ],
      [
        "for",
        "me"
      ],
      [
        "mort",
        "s"
      ],
      [
        "amour",
        "s"
      ],
      [
        "vois",
        "ins"
      ],
      [
        "pau",
        "vres"
      ],
      [
        "sau",
        "ver"
      ],
      [
        "po",
        "ser"
      ],
      [
        "ten",
        "ait"
      ],
      [
        "pi",
        "que"
      ],
      [
        "pi",
        "ge"
      ],
      [
        "compagn",
        "ie"
      ],
      [
        "onde",
        "lle"
      ],
      [
        "long",
        "temps"
      ],
      [
        "go",
        "gne"
      ],
      [
        "four",
        "n"
      ],
      [
        "écr",
        "i"
      ],
      [
        "gal",
        "ant"
      ],
      [
        "contr",
        "aire"
      ],
      [
        "troup",
        "e"
      ],
      [
        "œu",
        "fs"
      ],
      [
        "sembla",
        "bles"
      ],
      [
        "mér",
        "ite"
      ],
      [
        "mét",
        "ier"
      ],
      [
        "hôt",
        "es"
      ],
      [
        "sec",
        "ret"
      ],
      [
        "nour",
        "ris"
      ],
      [
        "simp",
        "le"
      ],
      [
        "mortel",
        "s"
      ],
      [
        "rap",
        "port"
      ],
      [
        "olymp",
        "e"
      ],
      [
        "bauc",
        "is"
      ],
      [
        "hir",
        "ondelle"
      ],
      [
        ".",
        "»"
      ],
      [
        "b",
        "al"
      ],
      [
        "b",
        "ri"
      ],
      [
        "b",
        "lé"
      ],
      [
        "c",
        "le"
      ],
      [
        "c",
        "in"
      ],
      [
        "c",
        "ité"
      ],
      [
        "d",
        "î"
      ],
      [
        "d",
        "il"
      ],
      [
        "d",
        "ur"
      ],
      [
        "d",
        "os"
      ],
      [
        "d",
        "rais"
      ],
      [
        "f",
        "é"
      ],
      [
        "f",
        "le"
      ],
      [
        "f",
        "re"
      ],
      [
        "f",
        "illes"
      ],
      [
        "g",
        "age"
      ],
      [
        "g",
        "ret"
      ],
      [
        "i",
        "gne"
      ],
      [
        "j",
        "on"
      ],
      [
        "j",
        "eux"
      ],
      [
        "l",
        "â"
      ],
      [
        "n",
        "et"
      ],
      [
        "p",
        "an"
      ],
      [
        "p",
        "un"
      ],
      [
        "r",
        "ob"
      ],
      [
        "t",
        "end"
      ],
      [
        "u",
        "il"
      ],
      [
        "u",
        "res"
      ],
      [
        "v",
        "es"
      ],
      [
        "v",
        "as"
      ],
      [
        "ç",
        "onn"
      ],
      [
        "é",
        "vit"
      ],
      [
        "é",
        "loi"
      ],
      [
        "é",
        "léphant"
      ],
      [
        "ou",
        "bli"
      ],
      [
        "re",
        "ur"
      ],
      [
        "re",
        "cu"
      ],
      [
        "re",
        "vient"
      ],
      [
        "re",
        "présent"
      ],
      [
        "de",
        "ur"
      ],
      [
        "qu",
        "é"
      ],
      [
        "qu",
        "is"
      ],
      [
        "er",
        "ne"
      ],
      [
        "es",
        "car"
      ],
      [
        "es",
        "pè"
      ],
      [
        "au",
        "ri"
      ],
      [
        "au",
        "ra"
      ],
      [
        "ent",
        "end"
      ],
      [
        "ent",
        "ends"
      ],
      [
        "ch",
        "ats"
      ],
      [
        "te",
        "ment"
      ],
      [
        "ce",
        "p"
      ],
      [
        "in",
        "con"
      ],
      [
        "in",
        "no"
      ],
      [
        "om",
        "age"
      ],
      [
        "tr",
        "at"
      ],
      [
        "tr",
        "ain"
      ],
      [
        "av",
        "an"
      ],
      [
        "par",
        "oles"
      ],
      [
        "al",
        "i"
      ],
      [
        "al",
        "lé"
      ],
      [
        "sa",
        "c"
      ],
      [
        "con",
        "f"
      ],
      [
        "am",
        "ou"
      ],
      [
        "com",
        "bien"
      ],
      [
        "com",
        "père"
      ],
      [
        "vi",
        "vant"
      ],
      [
        "dé",
        "esse"
      ],
      [
        "gr",
        "ain"
      ],
      [
        "su",
        "ite"
      ],
      [
        "ap",
        "pu"
      ],
      [
        "ab",
        "at"
      ],
      [
        "os",
        "si"
      ],
      [
        "be",
        "l"
      ],
      [
        "be",
        "lles"
      ],
      [
        "ri",
        "x"
      ],
      [
        "pro",
        "f"
      ],
      [
        "pro",
        "vin"
      ],
      [
        "pro",
        "gné"
      ],
      [
        "cor",
        "nes"
      ],
      [
        "ter",
        "ri"
      ],
      [
        "puis",
        "se"
      ],
      [
        "puis",
        "sant"
      ],
      [
        "fr",
        "ont"
      ],
      [
        "fr",
        "uit"
      ],
      [
        "fr",
        "omage"
      ],
      [
        "emp",
        "l"
      ],
      [
        "rais",
        "onn"
      ],
      [
        "br",
        "ou"
      ],
      [
        "br",
        "an"
      ],
      [
        "ins",
        "tant"
      ],
      [
        "oy",
        "ens"
      ],
      [
        "lon",
        "gu"
      ],
      [
        "mé",
        "de"
      ],
      [
        "vou",
        "lant"
      ],
      [
        "bre",
        "f"
      ],
      [
        "dr",
        "ont"
      ],
      [
        "jus",
        "ti"
      ],
      [
        "chat",
        "te"
      ],
      [
        "affaire",
        "s"
      ],
      [
        "pou",
        "le"
      ],
      [
        "sais",
        "on"
      ],
      [
        "nom",
        "bre"
      ],
      [
        "arri",
        "va"
      ],
      [
        "auc",
        "une"
      ],
      [
        "pare",
        "il"
      ],
      [
        "grâ",
        "ces"
      ],
      [
        "quit",
        "ter"
      ],
      [
        "prom",
        "et"
      ],
      [
        "tri",
        "but"
      ],
      [
        "vien",
        "dra"
      ],
      [
        "mor",
        "ceau"
      ],
      [
        "vrai",
        "ment"
      ],
      [
        "pren",
        "ait"
      ],
      [
        "pren",
        "ez"
      ],
      [
        "perd",
        "rix"
      ],
      [
        "ga",
        "gner"
      ],
      [
        "agne",
        "au"
      ],
      [
        "pein",
        "tre"
      ],
      [
        "hi",
        "bou"
      ],
      [
        "bât",
        "on"
      ],
      [
        "sat",
        "is"
      ],
      [
        "arrê",
        "ter"
      ],
      [
        "campa",
        "gne"
      ],
      [
        "appét",
        "it"
      ],
      [
        "consi",
        "dé"
      ],
      [
        "majest",
        "é"
      ],
      [
        "espè",
        "ce"
      ],
      [
        "b",
        "ais"
      ],
      [
        "b",
        "oire"
      ],
      [
        "b",
        "êtes"
      ],
      [
        "b",
        "œuf"
      ],
      [
        "c",
        "us"
      ],
      [
        "c",
        "œur"
      ],
      [
        "d",
        "èle"
      ],
      [
        "f",
        "ai"
      ],
      [
        "f",
        "ête"
      ],
      [
        "g",
        "or"
      ],
      [
        "h",
        "ors"
      ],
      [
        "h",
        "ale"
      ],
      [
        "j",
        "oi"
      ],
      [
        "l",
        "ée"
      ],
      [
        "l",
        "ang"
      ],
      [
        "m",
        "és"
      ],
      [
        "m",
        "aine"
      ],
      [
        "n",
        "or"
      ],
      [
        "o",
        "lo"
      ],
      [
        "p",
        "is"
      ],
      [
        "p",
        "age"
      ],
      [
        "p",
        "âtre"
      ],
      [
        "r",
        "ant"
      ],
      [
        "s",
        "avez"
      ],
      [
        "t",
        "and"
      ],
      [
        "t",
        "és"
      ],
      [
        "t",
        "able"
      ],
      [
        "u",
        "ser"
      ],
      [
        "u",
        "ve"
      ],
      [
        "v",
        "an"
      ],
      [
        "v",
        "ue"
      ],
      [
        "ç",
        "a"
      ],
      [
        "en",
        "c"
      ],
      [
        "en",
        "le"
      ],
      [
        "en",
        "semble"
      ],
      [
        "en",
        "geance"
      ],
      [
        "le",
        "çon"
      ],
      [
        "re",
        "traite"
      ],
      [
        "re",
        "gret"
      ],
      [
        "de",
        "vient"
      ],
      [
        "qu",
        "ait"
      ],
      [
        "qu",
        "art"
      ],
      [
        "it",
        "able"
      ],
      [
        "au",
        "raient"
      ],
      [
        "il",
        "lus"
      ],
      [
        "ent",
        "e"
      ],
      [
        "se",
        "ur"
      ],
      [
        "ar",
        "mes"
      ],
      [
        "ch",
        "és"
      ],
      [
        "pr",
        "ête"
      ],
      [
        "as",
        "si"
      ],
      [
        "tr",
        "oisi"
      ],
      [
        "si",
        "en"
      ],
      [
        "si",
        "ne"
      ],
      [
        "si",
        "ens"
      ],
      [
        "est",
        "i"
      ],
      [
        "av",
        "e"
      ],
      [
        "av",
        "are"
      ],
      [
        "par",
        "ents"
      ],
      [
        "at",
        "h"
      ],
      [
        "ét",
        "endu"
      ],
      [
        "con",
        "sul"
      ],
      [
        "am",
        "in"
      ],
      [
        "eur",
        "ent"
      ],
      [
        "di",
        "x"
      ],
      [
        "vi",
        "ce"
      ],
      [
        "dé",
        "sir"
      ],
      [
        "ci",
        "le"
      ],
      [
        "ma",
        "g"
      ],
      [
        "ser",
        "ont"
      ],
      [
        "ser",
        "vit"
      ],
      [
        "che",
        "f"
      ],
      [
        "che",
        "vaux"
      ],
      [
        "os",
        "oph"
      ],
      [
        "gn",
        "eux"
      ],
      [
        "pl",
        "an"
      ],
      [
        "ard",
        "s"
      ],
      [
        "cher",
        "ch"
      ],
      [
        "ren",
        "om"
      ],
      [
        "ex",
        "er"
      ],
      [
        "ex",
        "cu"
      ],
      [
        "ve",
        "au"
      ],
      [
        "asse",
        "mb"
      ],
      [
        "fr",
        "oi"
      ],
      [
        "ni",
        "ère"
      ],
      [
        "rais",
        "ons"
      ],
      [
        "ven",
        "ait"
      ],
      [
        "ven",
        "geance"
      ],
      [
        "ins",
        "tru"
      ],
      [
        "oy",
        "er"
      ],
      [
        "trouv",
        "ait"
      ],
      [
        "lon",
        "gue"
      ],
      [
        "mé",
        "pris"
      ],
      [
        "mé",
        "chants"
      ],
      [
        "hu",
        "mble"
      ],
      [
        "lais",
        "sa"
      ],
      [
        "so",
        "eur"
      ],
      [
        "gne",
        "z"
      ],
      [
        "comm",
        "ère"
      ],
      [
        "mer",
        "ci"
      ],
      [
        "mer",
        "cure"
      ],
      [
        "sent",
        "i"
      ],
      [
        "char",
        "mes"
      ],
      [
        "char",
        "gé"
      ],
      [
        "fer",
        "a"
      ],
      [
        "heure",
        "use"
      ],
      [
        "sau",
        "rait"
      ],
      [
        "prin",
        "ci"
      ],
      [
        "pla",
        "t"
      ],
      [
        "gar",
        "dez"
      ],
      [
        "oc",
        "cas"
      ],
      [
        "ten",
        "ez"
      ],
      [
        "app",
        "li"
      ],
      [
        "air",
        "s"
      ],
      [
        "pi",
        "è"
      ],
      [
        "pare",
        "ille"
      ],
      [
        "pare",
        "illes"
      ],
      [
        "court",
        "isans"
      ],
      [
        "quit",
        "te"
      ],
      [
        "im",
        "pru"
      ],
      [
        "lan",
        "gue"
      ],
      [
        "rom",
        "e"
      ],
      [
        "trav",
        "ers"
      ],
      [
        "pér",
        "it"
      ],
      [
        "soup",
        "ir"
      ],
      [
        "person",
        "nes"
      ],
      [
        "gal",
        "and"
      ],
      [
        "content",
        "er"
      ],
      [
        "cru",
        "elle"
      ],
      [
        "phil",
        "émon"
      ],
      [
        "phil",
        "osoph"
      ],
      [
        "bour",
        "se"
      ],
      [
        "appro",
        "che"
      ],
      [
        "st",
        "y"
      ],
      [
        "all",
        "aient"
      ],
      [
        "har",
        "an"
      ],
      [
        "mér",
        "it"
      ],
      [
        "pein",
        "es"
      ],
      [
        "veu",
        "ve"
      ],
      [
        "grande",
        "ur"
      ],
      [
        "gri",
        "ffe"
      ],
      [
        "fri",
        "vo"
      ],
      [
        "alou",
        "ette"
      ],
      [
        "mil",
        "an"
      ],
      [
        "vér",
        "ité"
      ],
      [
        "tal",
        "ent"
      ],
      [
        "oise",
        "aux"
      ],
      [
        "attr",
        "ap"
      ],
      [
        "côt",
        "és"
      ],
      [
        "écou",
        "ter"
      ],
      [
        "tér",
        "ée"
      ],
      [
        "occu",
        "p"
      ],
      [
        "nô",
        "tre"
      ],
      [
        "créat",
        "ure"
      ],
      [
        "embarr",
        "as"
      ],
      [
        "lang",
        "age"
      ],
      [
        "tand",
        "is"
      ],
      [
        "troisi",
        "ème"
      ],
      [
        "b",
        "ab"
      ],
      [
        "c",
        "ouvert"
      ],
      [
        "d",
        "out"
      ],
      [
        "f",
        "ie"
      ],
      [
        "f",
        "urent"
      ],
      [
        "f",
        "lam"
      ],
      [
        "g",
        "ou"
      ],
      [
        "g",
        "ée"
      ],
      [
        "g",
        "out"
      ],
      [
        "j",
        "eu"
      ],
      [
        "j",
        "alou"
      ],
      [
        "l",
        "y"
      ],
      [
        "l",
        "ons"
      ],
      [
        "l",
        "ér"
      ],
      [
        "m",
        "ien"
      ],
      [
        "m",
        "ment"
      ],
      [
        "m",
        "use"
      ],
      [
        "n",
        "iers"
      ],
      [
        "p",
        "ê"
      ],
      [
        "p",
        "oi"
      ],
      [
        "p",
        "om"
      ],
      [
        "p",
        "leur"
      ],
      [
        "r",
        "y"
      ],
      [
        "r",
        "us"
      ],
      [
        "s",
        "aut"
      ],
      [
        "s",
        "œur"
      ],
      [
        "t",
        "an"
      ],
      [
        "t",
        "ap"
      ],
      [
        "t",
        "oit"
      ],
      [
        "t",
        "onn"
      ],
      [
        "u",
        "sage"
      ],
      [
        "v",
        "ir"
      ],
      [
        "v",
        "end"
      ],
      [
        "v",
        "ins"
      ],
      [
        "v",
        "endre"
      ],
      [
        "v",
        "ents"
      ],
      [
        "v",
        "aine"
      ],
      [
        "z",
        "é"
      ],
      [
        "é",
        "es"
      ],
      [
        "é",
        "par"
      ],
      [
        "é",
        "qui"
      ],
      [
        "en",
        "vers"
      ],
      [
        "ou",
        "i"
      ],
      [
        "re",
        "pos"
      ],
      [
        "ai",
        "mer"
      ],
      [
        "ai",
        "der"
      ],
      [
        "qu",
        "ent"
      ],
      [
        "qu",
        "ête"
      ],
      [
        "an",
        "c"
      ],
      [
        "an",
        "ces"
      ],
      [
        "it",
        "ié"
      ],
      [
        "es",
        "pér"
      ],
      [
        "un",
        "t"
      ],
      [
        "la",
        "cs"
      ],
      [
        "ar",
        "ts"
      ],
      [
        "ch",
        "eur"
      ],
      [
        "ch",
        "ois"
      ],
      [
        "ch",
        "ang"
      ],
      [
        "ch",
        "èvre"
      ],
      [
        "ce",
        "aux"
      ],
      [
        "or",
        "age"
      ],
      [
        "or",
        "ph"
      ],
      [
        "ant",
        "re"
      ],
      [
        "is",
        "an"
      ],
      [
        "in",
        "di"
      ],
      [
        "as",
        "ile"
      ],
      [
        "tr",
        "uit"
      ],
      [
        "tr",
        "ation"
      ],
      [
        "son",
        "ger"
      ],
      [
        "si",
        "x"
      ],
      [
        "al",
        "lant"
      ],
      [
        "ét",
        "i"
      ],
      [
        "ét",
        "ais"
      ],
      [
        "ét",
        "end"
      ],
      [
        "li",
        "re"
      ],
      [
        "li",
        "vres"
      ],
      [
        "am",
        "en"
      ],
      [
        "am",
        "bassa"
      ],
      [
        "am",
        "itié"
      ],
      [
        "cr",
        "ite"
      ],
      [
        "cr",
        "ate"
      ],
      [
        "di",
        "able"
      ],
      [
        "plu",
        "part"
      ],
      [
        "ouv",
        "rages"
      ],
      [
        "ser",
        "re"
      ],
      [
        "aire",
        "s"
      ],
      [
        "sur",
        "pris"
      ],
      [
        "and",
        "re"
      ],
      [
        "be",
        "auté"
      ],
      [
        "gn",
        "es"
      ],
      [
        "gn",
        "ait"
      ],
      [
        "res",
        "sort"
      ],
      [
        "ri",
        "ère"
      ],
      [
        "ac",
        "t"
      ],
      [
        "pro",
        "ch"
      ],
      [
        "pe",
        "c"
      ],
      [
        "gu",
        "et"
      ],
      [
        "don",
        "né"
      ],
      [
        "co",
        "ût"
      ],
      [
        "moi",
        "re"
      ],
      [
        "cor",
        "de"
      ],
      [
        "ré",
        "publique"
      ],
      [
        "ti",
        "ons"
      ],
      [
        "enf",
        "er"
      ],
      [
        "cher",
        "s"
      ],
      [
        "puis",
        "que"
      ],
      [
        "ra",
        "y"
      ],
      [
        "emp",
        "loi"
      ],
      [
        "voy",
        "ag"
      ],
      [
        "br",
        "amin"
      ],
      [
        "vou",
        "lu"
      ],
      [
        "dou",
        "leur"
      ],
      [
        "hu",
        "ître"
      ],
      [
        "port",
        "é"
      ],
      [
        "port",
        "ait"
      ],
      [
        "va",
        "lets"
      ],
      [
        "part",
        "ir"
      ],
      [
        "fais",
        "aient"
      ],
      [
        "té",
        "moin"
      ],
      [
        "jus",
        "ques"
      ],
      [
        "att",
        "ir"
      ],
      [
        "so",
        "lit"
      ],
      [
        "for",
        "êts"
      ],
      [
        "sou",
        "ci"
      ],
      [
        "dev",
        "int"
      ],
      [
        "pet",
        "ite"
      ],
      [
        "fi",
        "gu"
      ],
      [
        "fer",
        "ait"
      ],
      [
        "semb",
        "lait"
      ],
      [
        "der",
        "niers"
      ],
      [
        "imp",
        "orte"
      ],
      [
        "fa",
        "cile"
      ],
      [
        "premi",
        "ers"
      ],
      [
        "chant",
        "er"
      ],
      [
        "bou",
        "che"
      ],
      [
        "sot",
        "s"
      ],
      [
        "éc",
        "la"
      ],
      [
        "four",
        "mi"
      ],
      [
        "arr",
        "ête"
      ],
      [
        "comp",
        "ter"
      ],
      [
        "lou",
        "is"
      ],
      [
        "trav",
        "aille"
      ],
      [
        "soup",
        "çonn"
      ],
      [
        "person",
        "nage"
      ],
      [
        "plaisir",
        "s"
      ],
      [
        "trés",
        "ors"
      ],
      [
        "sujet",
        "s"
      ],
      [
        "fu",
        "ir"
      ],
      [
        "prét",
        "end"
      ],
      [
        "croy",
        "ez"
      ],
      [
        "souff",
        "rir"
      ],
      [
        "mat",
        "ière"
      ],
      [
        "ouvr",
        "it"
      ],
      [
        "ro",
        "be"
      ],
      [
        "déf",
        "endre"
      ],
      [
        "tort",
        "ue"
      ],
      [
        "pens",
        "ée"
      ],
      [
        "déli",
        "cat"
      ],
      [
        "pè",
        "ler"
      ],
      [
        "fo",
        "lle"
      ],
      [
        "pat",
        "te"
      ],
      [
        "lég",
        "ère"
      ],
      [
        "sages",
        "se"
      ],
      [
        "suff",
        "it"
      ],
      [
        "coq",
        "s"
      ],
      [
        "dir",
        "a"
      ],
      [
        "hôt",
        "esse"
      ],
      [
        "tâ",
        "che"
      ],
      [
        "attr",
        "aper"
      ],
      [
        "import",
        "un"
      ],
      [
        "conna",
        "ître"
      ],
      [
        "conna",
        "ît"
      ],
      [
        "âte",
        "au"
      ],
      [
        "effort",
        "s"
      ],
      [
        "voul",
        "oir"
      ],
      [
        "aisé",
        "ment"
      ],
      [
        "gas",
        "con"
      ],
      [
        "sal",
        "aire"
      ],
      [
        "choi",
        "x"
      ],
      [
        "intér",
        "êt"
      ],
      [
        "sol",
        "d"
      ],
      [
        "alar",
        "me"
      ],
      [
        "siè",
        "cle"
      ],
      [
        "fest",
        "in"
      ],
      [
        "écri",
        "a"
      ],
      [
        "allé",
        "gu"
      ],
      [
        "amou",
        "reux"
      ],
      [
        "hale",
        "ine"
      ],
      [
        "illus",
        "tration"
      ],
      [
        "équi",
        "page"
      ],
      [
        "1",
        "6"
      ],
      [
        "a",
        "che"
      ],
      [
        "a",
        "ger"
      ],
      [
        "c",
        "en"
      ],
      [
        "c",
        "oi"
      ],
      [
        "d",
        "ois"
      ],
      [
        "d",
        "res"
      ],
      [
        "f",
        "â"
      ],
      [
        "f",
        "aux"
      ],
      [
        "f",
        "leurs"
      ],
      [
        "g",
        "i"
      ],
      [
        "g",
        "â"
      ],
      [
        "g",
        "ir"
      ],
      [
        "g",
        "ère"
      ],
      [
        "g",
        "ence"
      ],
      [
        "g",
        "îte"
      ],
      [
        "h",
        "aine"
      ],
      [
        "j",
        "ur"
      ],
      [
        "m",
        "eu"
      ],
      [
        "m",
        "ur"
      ],
      [
        "m",
        "and"
      ],
      [
        "m",
        "ât"
      ],
      [
        "n",
        "ant"
      ],
      [
        "n",
        "ais"
      ],
      [
        "n",
        "us"
      ],
      [
        "o",
        "eil"
      ],
      [
        "p",
        "or"
      ],
      [
        "p",
        "ont"
      ],
      [
        "p",
        "oir"
      ],
      [
        "p",
        "pe"
      ],
      [
        "r",
        "ée"
      ],
      [
        "s",
        "cé"
      ],
      [
        "s",
        "trat"
      ],
      [
        "t",
        "ar"
      ],
      [
        "t",
        "or"
      ],
      [
        "t",
        "aille"
      ],
      [
        "v",
        "ul"
      ],
      [
        "y",
        "ait"
      ],
      [
        "è",
        "vres"
      ],
      [
        "é",
        "g"
      ],
      [
        "é",
        "ve"
      ],
      [
        "é",
        "cu"
      ],
      [
        "é",
        "gale"
      ],
      [
        "ô",
        "le"
      ],
      [
        "en",
        "dit"
      ],
      [
        "re",
        "aux"
      ],
      [
        "re",
        "ts"
      ],
      [
        "re",
        "vien"
      ],
      [
        "re",
        "viens"
      ],
      [
        "re",
        "tire"
      ],
      [
        "ai",
        "les"
      ],
      [
        "ai",
        "ma"
      ],
      [
        "de",
        "voir"
      ],
      [
        "qu",
        "eur"
      ],
      [
        "an",
        "cier"
      ],
      [
        "es",
        "te"
      ],
      [
        "es",
        "cla"
      ],
      [
        "se",
        "aux"
      ],
      [
        "eu",
        "s"
      ],
      [
        "ch",
        "éti"
      ],
      [
        "ce",
        "l"
      ],
      [
        "in",
        "qui"
      ],
      [
        "in",
        "utile"
      ],
      [
        "pr",
        "ouv"
      ],
      [
        "pr",
        "ier"
      ],
      [
        "tre",
        "mb"
      ],
      [
        "om",
        "èle"
      ],
      [
        "tr",
        "ous"
      ],
      [
        "si",
        "mon"
      ],
      [
        "si",
        "ez"
      ],
      [
        "av",
        "ais"
      ],
      [
        "par",
        "la"
      ],
      [
        "par",
        "ent"
      ],
      [
        "par",
        "ts"
      ],
      [
        "par",
        "lez"
      ],
      [
        "par",
        "ole"
      ],
      [
        "ge",
        "ois"
      ],
      [
        "al",
        "li"
      ],
      [
        "sa",
        "cri"
      ],
      [
        "ét",
        "our"
      ],
      [
        "ét",
        "ab"
      ],
      [
        "pour",
        "vu"
      ],
      [
        "qui",
        "con"
      ],
      [
        "con",
        "so"
      ],
      [
        "pas",
        "sa"
      ],
      [
        "pas",
        "sion"
      ],
      [
        "am",
        "bit"
      ],
      [
        "vo",
        "leur"
      ],
      [
        "com",
        "pl"
      ],
      [
        "vi",
        "ct"
      ],
      [
        "dé",
        "ses"
      ],
      [
        "dé",
        "tru"
      ],
      [
        "dé",
        "pens"
      ],
      [
        "dé",
        "bats"
      ],
      [
        "gr",
        "imp"
      ],
      [
        "ci",
        "gogne"
      ],
      [
        "ma",
        "gis"
      ],
      [
        "ser",
        "aient"
      ],
      [
        "ap",
        "ol"
      ],
      [
        "ab",
        "on"
      ],
      [
        "ab",
        "and"
      ],
      [
        "pu",
        "te"
      ],
      [
        "pu",
        "its"
      ],
      [
        "ac",
        "ci"
      ],
      [
        "ac",
        "cu"
      ],
      [
        "pro",
        "jet"
      ],
      [
        "pro",
        "pose"
      ],
      [
        "ér",
        "ir"
      ],
      [
        "pe",
        "ct"
      ],
      [
        "gu",
        "ise"
      ],
      [
        "ver",
        "se"
      ],
      [
        "ver",
        "ra"
      ],
      [
        "ot",
        "s"
      ],
      [
        "co",
        "ch"
      ],
      [
        "pl",
        "on"
      ],
      [
        "pl",
        "aise"
      ],
      [
        "enf",
        "uit"
      ],
      [
        "cher",
        "on"
      ],
      [
        "puis",
        "qu"
      ],
      [
        "ren",
        "voy"
      ],
      [
        "ren",
        "contr"
      ],
      [
        "mar",
        "s"
      ],
      [
        "mar",
        "che"
      ],
      [
        "temp",
        "ér"
      ],
      [
        "man",
        "quer"
      ],
      [
        "ni",
        "d"
      ],
      [
        "ven",
        "ant"
      ],
      [
        "voy",
        "ons"
      ],
      [
        "ag",
        "ème"
      ],
      [
        "mé",
        "moire"
      ],
      [
        "ple",
        "ure"
      ],
      [
        "maître",
        "s"
      ],
      [
        "hu",
        "main"
      ],
      [
        "port",
        "ant"
      ],
      [
        "part",
        "ie"
      ],
      [
        "fin",
        "i"
      ],
      [
        "fais",
        "ons"
      ],
      [
        "té",
        "moi"
      ],
      [
        "att",
        "endre"
      ],
      [
        "lar",
        "ron"
      ],
      [
        "souv",
        "er"
      ],
      [
        "donn",
        "ait"
      ],
      [
        "pou",
        "lets"
      ],
      [
        "ten",
        "ant"
      ],
      [
        "tra",
        "ître"
      ],
      [
        "march",
        "é"
      ],
      [
        "arri",
        "v"
      ],
      [
        "pouv",
        "ez"
      ],
      [
        "min",
        "er"
      ],
      [
        "pay",
        "er"
      ],
      [
        "hab",
        "ile"
      ],
      [
        "honn",
        "ête"
      ],
      [
        "prés",
        "ents"
      ],
      [
        "sui",
        "vre"
      ],
      [
        "seign",
        "eurs"
      ],
      [
        "off",
        "re"
      ],
      [
        "off",
        "rir"
      ],
      [
        "off",
        "ice"
      ],
      [
        "comp",
        "te"
      ],
      [
        "mou",
        "ches"
      ],
      [
        "prét",
        "ends"
      ],
      [
        "berger",
        "s"
      ],
      [
        "hér",
        "it"
      ],
      [
        "étr",
        "ange"
      ],
      [
        "ill",
        "ons"
      ],
      [
        "phil",
        "omèle"
      ],
      [
        "bour",
        "geois"
      ],
      [
        "ct",
        "eur"
      ],
      [
        "dor",
        "mait"
      ],
      [
        "her",
        "cule"
      ],
      [
        "aim",
        "ait"
      ],
      [
        "cri",
        "a"
      ],
      [
        "na",
        "ger"
      ],
      [
        "gre",
        "c"
      ],
      [
        "gre",
        "cs"
      ],
      [
        "mir",
        "oirs"
      ],
      [
        "ass",
        "is"
      ],
      [
        "mu",
        "let"
      ],
      [
        "remp",
        "lit"
      ],
      [
        "juste",
        "ment"
      ],
      [
        "tomb",
        "a"
      ],
      [
        "hy",
        "men"
      ],
      [
        "sû",
        "re"
      ],
      [
        "ense",
        "igne"
      ],
      [
        "souhait",
        "s"
      ],
      [
        "lè",
        "ve"
      ],
      [
        "aperç",
        "ut"
      ],
      [
        "profon",
        "de"
      ],
      [
        "merve",
        "ille"
      ],
      [
        "merve",
        "illes"
      ],
      [
        "grenou",
        "ille"
      ],
      [
        "grenou",
        "illes"
      ],
      [
        "volont",
        "iers"
      ],
      [
        "rem",
        "ède"
      ],
      [
        "cuis",
        "ine"
      ],
      [
        "aveu",
        "gle"
      ],
      [
        "super",
        "f"
      ],
      [
        "vert",
        "us"
      ],
      [
        "escar",
        "b"
      ],
      [
        "provin",
        "ce"
      ],
      [
        "justi",
        "ce"
      ],
      [
        "olo",
        "gue"
      ],
      [
        "van",
        "ité"
      ],
      [
        "enc",
        "ens"
      ],
      [
        "occas",
        "ion"
      ],
      [
        "tap",
        "is"
      ],
      [
        "zé",
        "ph"
      ],
      [
        "scé",
        "lér"
      ],
      [
        "strat",
        "agème"
      ],
      [
        "quicon",
        "que"
      ],
      [
        "vict",
        "oire"
      ],
      [
        "apol",
        "lon"
      ],
      [
        "\"",
        "."
      ],
      [
        "b",
        "ande"
      ],
      [
        "c",
        "ous"
      ],
      [
        "c",
        "ap"
      ],
      [
        "c",
        "és"
      ],
      [
        "c",
        "ins"
      ],
      [
        "c",
        "lar"
      ],
      [
        "c",
        "ède"
      ],
      [
        "c",
        "œurs"
      ],
      [
        "d",
        "in"
      ],
      [
        "d",
        "oc"
      ],
      [
        "e",
        "léphant"
      ],
      [
        "f",
        "en"
      ],
      [
        "f",
        "leur"
      ],
      [
        "f",
        "ab"
      ],
      [
        "f",
        "ré"
      ],
      [
        "f",
        "ins"
      ],
      [
        "f",
        "lot"
      ],
      [
        "g",
        "en"
      ],
      [
        "g",
        "our"
      ],
      [
        "g",
        "ain"
      ],
      [
        "g",
        "ie"
      ],
      [
        "h",
        "os"
      ],
      [
        "i",
        "d"
      ],
      [
        "i",
        "qu"
      ],
      [
        "i",
        "ent"
      ],
      [
        "i",
        "fi"
      ],
      [
        "i",
        "mag"
      ],
      [
        "j",
        "oint"
      ],
      [
        "j",
        "ure"
      ],
      [
        "l",
        "un"
      ],
      [
        "l",
        "our"
      ],
      [
        "l",
        "ance"
      ],
      [
        "m",
        "ut"
      ],
      [
        "m",
        "ul"
      ],
      [
        "n",
        "oir"
      ],
      [
        "n",
        "ette"
      ],
      [
        "p",
        "ain"
      ],
      [
        "r",
        "h"
      ],
      [
        "r",
        "an"
      ],
      [
        "r",
        "av"
      ],
      [
        "s",
        "és"
      ],
      [
        "s",
        "œurs"
      ],
      [
        "t",
        "te"
      ],
      [
        "t",
        "ur"
      ],
      [
        "t",
        "endre"
      ],
      [
        "y",
        "st"
      ],
      [
        "z",
        "on"
      ],
      [
        "â",
        "nes"
      ],
      [
        "é",
        "le"
      ],
      [
        "é",
        "co"
      ],
      [
        "en",
        "voy"
      ],
      [
        "en",
        "seign"
      ],
      [
        "en",
        "vir"
      ],
      [
        "le",
        "çons"
      ],
      [
        "ou",
        "tre"
      ],
      [
        "ou",
        "tr"
      ],
      [
        "re",
        "ine"
      ],
      [
        "re",
        "venir"
      ],
      [
        "de",
        "au"
      ],
      [
        "qu",
        "ence"
      ],
      [
        "an",
        "non"
      ],
      [
        "er",
        "ai"
      ],
      [
        "au",
        "près"
      ],
      [
        "au",
        "rez"
      ],
      [
        "au",
        "tels"
      ],
      [
        "et",
        "s"
      ],
      [
        "et",
        "tes"
      ],
      [
        "il",
        "lé"
      ],
      [
        "il",
        "ité"
      ],
      [
        "ent",
        "es"
      ],
      [
        "ent",
        "ra"
      ],
      [
        "ar",
        "ice"
      ],
      [
        "ch",
        "ê"
      ],
      [
        "ch",
        "ou"
      ],
      [
        "ch",
        "ée"
      ],
      [
        "ch",
        "âteau"
      ],
      [
        "is",
        "sait"
      ],
      [
        "in",
        "et"
      ],
      [
        "pr",
        "ême"
      ],
      [
        "ur",
        "ie"
      ],
      [
        "me",
        "mb"
      ],
      [
        "lu",
        "mi"
      ],
      [
        "tr",
        "é"
      ],
      [
        "tr",
        "and"
      ],
      [
        "av",
        "arice"
      ],
      [
        "par",
        "que"
      ],
      [
        "par",
        "lait"
      ],
      [
        "al",
        "ier"
      ],
      [
        "du",
        "e"
      ],
      [
        "sa",
        "y"
      ],
      [
        "sa",
        "lut"
      ],
      [
        "ét",
        "onne"
      ],
      [
        "con",
        "t"
      ],
      [
        "con",
        "tes"
      ],
      [
        "con",
        "tin"
      ],
      [
        "li",
        "bre"
      ],
      [
        "li",
        "ber"
      ],
      [
        "li",
        "ers"
      ],
      [
        "am",
        "é"
      ],
      [
        "am",
        "orph"
      ],
      [
        "dit",
        "ion"
      ],
      [
        "vo",
        "ler"
      ],
      [
        "di",
        "gne"
      ],
      [
        "di",
        "vin"
      ],
      [
        "plu",
        "sieurs"
      ],
      [
        "ouv",
        "re"
      ],
      [
        "vi",
        "ère"
      ],
      [
        "dé",
        "sert"
      ],
      [
        "su",
        "prême"
      ],
      [
        "ser",
        "vi"
      ],
      [
        "ser",
        "ver"
      ],
      [
        "bien",
        "fait"
      ],
      [
        "peu",
        "vent"
      ],
      [
        "ri",
        "que"
      ],
      [
        "ac",
        "comm"
      ],
      [
        "cour",
        "ait"
      ],
      [
        "cour",
        "ant"
      ],
      [
        "pro",
        "ph"
      ],
      [
        "pro",
        "fond"
      ],
      [
        "gu",
        "ill"
      ],
      [
        "per",
        "dre"
      ],
      [
        "per",
        "fi"
      ],
      [
        "co",
        "ûte"
      ],
      [
        "ré",
        "ve"
      ],
      [
        "puis",
        "sance"
      ],
      [
        "bon",
        "heur"
      ],
      [
        "car",
        "rière"
      ],
      [
        "man",
        "que"
      ],
      [
        "man",
        "ant"
      ],
      [
        "ec",
        "ou"
      ],
      [
        "emp",
        "lois"
      ],
      [
        "ven",
        "ger"
      ],
      [
        "ag",
        "ir"
      ],
      [
        "entre",
        "r"
      ],
      [
        "mé",
        "di"
      ],
      [
        "ple",
        "ine"
      ],
      [
        "vou",
        "drais"
      ],
      [
        "lo",
        "ge"
      ],
      [
        "dr",
        "u"
      ],
      [
        "dr",
        "ôle"
      ],
      [
        "dou",
        "c"
      ],
      [
        "sort",
        "es"
      ],
      [
        "tour",
        "ne"
      ],
      [
        "lais",
        "s"
      ],
      [
        "part",
        "age"
      ],
      [
        "voi",
        "sine"
      ],
      [
        "jet",
        "te"
      ],
      [
        "aff",
        "li"
      ],
      [
        "té",
        "moins"
      ],
      [
        "att",
        "ent"
      ],
      [
        "so",
        "ci"
      ],
      [
        "ang",
        "es"
      ],
      [
        "toute",
        "fois"
      ],
      [
        "renard",
        "s"
      ],
      [
        "for",
        "êt"
      ],
      [
        "sent",
        "ant"
      ],
      [
        "lar",
        "ge"
      ],
      [
        "lar",
        "mes"
      ],
      [
        "ber",
        "trand"
      ],
      [
        "mis",
        "ère"
      ],
      [
        "pos",
        "ses"
      ],
      [
        "fer",
        "ai"
      ],
      [
        "imp",
        "ossi"
      ],
      [
        "pré",
        "f"
      ],
      [
        "sau",
        "rais"
      ],
      [
        "sau",
        "vage"
      ],
      [
        "aille",
        "urs"
      ],
      [
        "rat",
        "on"
      ],
      [
        "prin",
        "temps"
      ],
      [
        "ca",
        "pri"
      ],
      [
        "seul",
        "s"
      ],
      [
        "app",
        "orte"
      ],
      [
        "tra",
        "fi"
      ],
      [
        "fa",
        "ce"
      ],
      [
        "mo",
        "que"
      ],
      [
        "pouv",
        "ant"
      ],
      [
        "chant",
        "ait"
      ],
      [
        "honn",
        "eurs"
      ],
      [
        "let",
        "tes"
      ],
      [
        "sot",
        "te"
      ],
      [
        "prom",
        "p"
      ],
      [
        "prom",
        "pt"
      ],
      [
        "sui",
        "vi"
      ],
      [
        "éc",
        "l"
      ],
      [
        "cham",
        "bre"
      ],
      [
        "donne",
        "z"
      ],
      [
        "comp",
        "li"
      ],
      [
        "serv",
        "ant"
      ],
      [
        "gl",
        "out"
      ],
      [
        "vien",
        "ne"
      ],
      [
        "mor",
        "ale"
      ],
      [
        "pér",
        "il"
      ],
      [
        "plain",
        "dre"
      ],
      [
        "prét",
        "endait"
      ],
      [
        "gros",
        "se"
      ],
      [
        "contr",
        "ain"
      ],
      [
        "fau",
        "dra"
      ],
      [
        "fau",
        "drait"
      ],
      [
        "exemp",
        "les"
      ],
      [
        "dor",
        "mir"
      ],
      [
        "présent",
        "e"
      ],
      [
        "éch",
        "ap"
      ],
      [
        "ouvr",
        "ir"
      ],
      [
        "mom",
        "ents"
      ],
      [
        "somme",
        "il"
      ],
      [
        "tir",
        "cis"
      ],
      [
        "épou",
        "se"
      ],
      [
        "trou",
        "b"
      ],
      [
        "déf",
        "unt"
      ],
      [
        "crain",
        "t"
      ],
      [
        "crain",
        "te"
      ],
      [
        "crain",
        "dre"
      ],
      [
        "enne",
        "mis"
      ],
      [
        "cro",
        "quant"
      ],
      [
        "har",
        "di"
      ],
      [
        "oeu",
        "fs"
      ],
      [
        "pot",
        "age"
      ],
      [
        "endroit",
        "s"
      ],
      [
        "sc",
        "ience"
      ],
      [
        "tien",
        "ne"
      ],
      [
        "remp",
        "lis"
      ],
      [
        "bl",
        "és"
      ],
      [
        "aver",
        "tir"
      ],
      [
        "connais",
        "sance"
      ],
      [
        "bord",
        "s"
      ],
      [
        "dét",
        "our"
      ],
      [
        "fav",
        "oris"
      ],
      [
        "flat",
        "teur"
      ],
      [
        "chau",
        "ve"
      ],
      [
        "vér",
        "itable"
      ],
      [
        "montre",
        "r"
      ],
      [
        "suiv",
        "ez"
      ],
      [
        "ode",
        "ur"
      ],
      [
        "hon",
        "te"
      ],
      [
        "fran",
        "ç"
      ],
      [
        "maudit",
        "e"
      ],
      [
        "mons",
        "tre"
      ],
      [
        "ingr",
        "ats"
      ],
      [
        "fat",
        "i"
      ],
      [
        "invent",
        "é"
      ],
      [
        "élo",
        "ge"
      ],
      [
        "étonn",
        "é"
      ],
      [
        "pois",
        "sons"
      ],
      [
        "roy",
        "au"
      ],
      [
        "în",
        "t"
      ],
      [
        "accour",
        "ut"
      ],
      [
        "misér",
        "able"
      ],
      [
        "possé",
        "dait"
      ],
      [
        "mena",
        "ce"
      ],
      [
        "bar",
        "be"
      ],
      [
        "dau",
        "ph"
      ],
      [
        "pier",
        "re"
      ],
      [
        "secon",
        "d"
      ],
      [
        "déch",
        "ire"
      ],
      [
        "fourn",
        "it"
      ],
      [
[...]
