{
  "version": "1.0",
  "truncation": null,
  "padding": null,
  "added_tokens": [
    {
      "id": 0,
      "content": "[UNK]",
      "single_word": false,
      "lstrip": false,
      "rstrip": false,
      "normalized": false,
      "special": true
    },
    {
      "id": 1,
      "content": "<|titre|>",
      "single_word": false,
      "lstrip": false,
      "rstrip": false,
      "normalized": false,
      "special": true
    },
    {
      "id": 2,
      "content": "<|sep|>",
      "single_word": false,
      "lstrip": false,
      "rstrip": false,
      "normalized": false,
      "special": true
    }
  ],
  "normalizer": null,
  "pre_tokenizer": {
    "type": "Whitespace"
  },
  "post_processor": null,
  "decoder": null,
  "model": {
    "type": "BPE",
    "dropout": null,
    "unk_token": null,
    "continuing_subword_prefix": null,
    "end_of_word_suffix": null,
    "fuse_unk": false,
    "byte_fallback": false,
    "ignore_merges": false,
    "vocab": {
      "[UNK]": 0,
      "<|titre|>": 1,
      "<|sep|>": 2,
      "!": 3,
      "\"": 4,
      "#": 5,
      "'": 6,
      "(": 7,
      ")": 8,
      "*": 9,
      ",": 10,
      "-": 11,
      ".": 12,
      "0": 13,
      "1": 14,
      "2": 15,
      "3": 16,
      "4": 17,
      "5": 18,
      "6": 19,
      "7": 20,
      "8": 21,
      "9": 22,
      ":": 23,
      ";": 24,
      "<": 25,
      ">": 26,
      "?": 27,
      "[": 28,
      "]": 29,
      "a": 30,
      "b": 31,
      "c": 32,
      "d": 33,
      "e": 34,
      "f": 35,
      "g": 36,
      "h": 37,
      "i": 38,
      "j": 39,
      "k": 40,
      "l": 41,
      "m": 42,
      "n": 43,
      "o": 44,
      "p": 45,
      "q": 46,
      "r": 47,
      "s": 48,
      "t": 49,
      "u": 50,
      "v": 51,
      "w": 52,
      "x": 53,
      "y": 54,
      "z": 55,
      "|": 56,
      "": 57,
      "": 58,
      "«": 59,
      "°": 60,
      "»": 61,
      "à": 62,
      "â": 63,
      "ç": 64,
      "è": 65,
      "é": 66,
      "ê": 67,
      "ë": 68,
      "î": 69,
      "ï": 70,
      "ô": 71,
      "ù": 72,
      "û": 73,
      "ü": 74,
      "œ": 75,
      "‘": 76,
      "’": 77,
      "en": 78,
      "le": 79,
      "ou": 80,
      "re": 81,
      "ai": 82,
      "on": 83,
      "de": 84,
      "qu": 85,
      "an": 86,
      "er": 87,
      "it": 88,
      "es": 89,
      "au": 90,
      "et": 91,
      "il": 92,
      "un": 93,
      "la": 94,
      "ent": 95,
      "se": 96,
      "oi": 97,
      "eu": 98,
      "ar": 99,
      "ait": 100,
      "ch": 101,
      "que": 102,
      "our": 103,
      "te": 104,
      "ce": 105,
      "or": 106,
      "les": 107,
      "ne": 108,
      "ant": 109,
      "is": 110,
      "in": 111,
      "pr": 112,
      "ous": 113,
      "tre": 114,
      "om": 115,
      "ur": 116,
      "as": 117,
      "me": 118,
      "ais": 119,
      "lu": 120,
      "tr": 121,
      "son": 122,
      "si": 123,
      "est": 124,
      "av": 125,
      "par": 126,
      "ien": 127,
      "at": 128,
      "ge": 129,
      "<|": 130,
      "je": 131,
      "|>": 132,
      "des": 133,
      "al": 134,
      "tou": 135,
      "du": 136,
      "ans": 137,
      "sa": 138,
      "lle": 139,
      "ét": 140,
      "pour": 141,
      "qui": 142,
      "vous": 143,
      "ir": 144,
      "con": 145,
      "pas": 146,
      "eux": 147,
      "ain": 148,
      "ort": 149,
      "li": 150,
      "une": 151,
      "am": 152,
      "dit": 153,
      "tit": 154,
      "vo": 155,
      "eur": 156,
      "oin": 157,
      "com": 158,
      "titre": 159,
      "cr": 160,
      "di": 161,
      "end": 162,
      "tout": 163,
      "plu": 164,
      "aux": 165,
      "leur": 166,
      "..": 167,
      "mp": 168,
      "ouv": 169,
      "ois": 170,
      "vi": 171,
      "ère": 172,
      "lui": 173,
      "dé": 174,
      "gr": 175,
      "ont": 176,
      "su": 177,
      "ci": 178,
      "plus": 179,
      "ma": 180,
      "ser": 181,
      "aire": 182,
      "ap": 183,
      "ment": 184,
      "ab": 185,
      "ut": 186,
      "bien": 187,
      "ces": 188,
      "sur": 189,
      "che": 190,
      "ons": 191,
      "fait": 192,
      "elle": 193,
      "os": 194,
      "and": 195,
      "cet": 196,
      "dans": 197,
      "autre": 198,
      "mon": 199,
      "oup": 200,
      "és": 201,
      "peu": 202,
      "ff": 203,
      "aut": 204,
      "mais": 205,
      "ses": 206,
      "nous": 207,
      "be": 208,
      "gn": 209,
      "res": 210,
      "jour": 211,
      "ri": 212,
      "aient": 213,
      "pu": 214,
      "quel": 215,
      "ils": 216,
      "mi": 217,
      "ac": 218,
      "ux": 219,
      "age": 220,
      "ée": 221,
      "cour": 222,
      "ens": 223,
      "mes": 224,
      "pro": 225,
      "ér": 226,
      "sep": 227,
      "oir": 228,
      "pe": 229,
      "gu": 230,
      "don": 231,
      "ver": 232,
      "oint": 233,
      "pa": 234,
      "ot": 235,
      "ier": 236,
      "était": 237,
      "per": 238,
      "point": 239,
      "us": 240,
      "ille": 241,
      "ie": 242,
      "oit": 243,
      "sans": 244,
      "cette": 245,
      "tant": 246,
      "co": 247,
      "ger": 248,
      "moi": 249,
      "tous": 250,
      "ure": 251,
      "mal": 252,
      "ôt": 253,
      "pl": 254,
      "ard": 255,
      "cor": 256,
      "ré": 257,
      "ter": 258,
      "ez": 259,
      "ti": 260,
      "dis": 261,
      "enf": 262,
      "ès": 263,
      "deux": 264,
      "cher": 265,
      "hom": 266,
      "ême": 267,
      "puis": 268,
      "fut": 269,
      "main": 270,
      "ren": 271,
      "cer": 272,
      "bon": 273,
      "mar": 274,
      "quelque": 275,
      "temp": 276,
      "comme": 277,
      "car": 278,
      "no": 279,
      "ex": 280,
      "man": 281,
      "....": 282,
      "faire": 283,
      "gens": 284,
      "ve": 285,
      "tu": 286,
      "mb": 287,
      "ec": 288,
      "fort": 289,
      "ra": 290,
      "sont": 291,
      "avait": 292,
      "ût": 293,
      "même": 294,
      "asse": 295,
      "ître": 296,
      "aus": 297,
      "avec": 298,
      "fr": 299,
      "out": 300,
      "ul": 301,
      "être": 302,
      "ni": 303,
      "là": 304,
      "fit": 305,
      "tes": 306,
      "vre": 307,
      "emp": 308,
      "ph": 309,
      "jours": 310,
      "ête": 311,
      "orte": 312,
      "homme": 313,
      "ine": 314,
      "ose": 315,
      "rais": 316,
      "able": 317,
      "leurs": 318,
      "ven": 319,
      "ance": 320,
      "voy": 321,
      "lé": 322,
      "br": 323,
      "prit": 324,
      "ins": 325,
      "eurs": 326,
      "temps": 327,
      "endre": 328,
      "ag": 329,
      "coup": 330,
      "faut": 331,
      "oy": 332,
      "trouv": 333,
      "entre": 334,
      "vie": 335,
      "lon": 336,
      "notre": 337,
      "mé": 338,
      "eut": 339,
      "ple": 340,
      "vou": 341,
      "ants": 342,
      "beau": 343,
      "rien": 344,
      "moin": 345,
      "lait": 346,
      "quand": 347,
      "ju": 348,
      "loup": 349,
      "quoi": 350,
      "lo": 351,
      "non": 352,
      "met": 353,
      "peut": 354,
      "ts": 355,
      "bre": 356,
      "dr": 357,
      "ani": 358,
      "maître": 359,
      "dou": 360,
      "hu": 361,
      "sé": 362,
      "vit": 363,
      "vers": 364,
      "sort": 365,
      "tour": 366,
      "ler": 367,
      "lais": 368,
      "cu": 369,
      "onn": 370,
      "port": 371,
      "va": 372,
      "voir": 373,
      "nu": 374,
      "eure": 375,
      "vient": 376,
      "part": 377,
      "chez": 378,
      "op": 379,
      "em": 380,
      "voi": 381,
      "jet": 382,
      "int": 383,
      "ob": 384,
      "ents": 385,
      "aff": 386,
      "fin": 387,
      "fais": 388,
      "té": 389,
      "pit": 390,
      "aine": 391,
      "toujours": 392,
      "votre": 393,
      "dire": 394,
      "cert": 395,
      "pre": 396,
      "grand": 397,
      "oire": 398,
      "ion": 399,
      "jus": 400,
      "sour": 401,
      "chose": 402,
      "att": 403,
      "ainsi": 404,
      "dieux": 405,
      "so": 406,
      "tel": 407,
      "près": 408,
      "ats": 409,
      "donc": 410,
      "fois": 411,
      "gne": 412,
      "nos": 413,
      "ang": 414,
      "comm": 415,
      "rent": 416,
      "ité": 417,
      "ors": 418,
      "iens": 419,
      "toute": 420,
      "contre": 421,
      "renard": 422,
      "for": 423,
      "ât": 424,
      "chac": 425,
      "pris": 426,
      "dieu": 427,
      "ite": 428,
      "ord": 429,
      "aussi": 430,
      "moins": 431,
      "où": 432,
      "rait": 433,
      "sou": 434,
      "pri": 435,
      "trop": 436,
      "mer": 437,
      "sent": 438,
      "ay": 439,
      "fem": 440,
      "dev": 441,
      "chacun": 442,
      "dont": 443,
      "né": 444,
      "ble": 445,
      "pet": 446,
      "lar": 447,
      "celui": 448,
      "ber": 449,
      "ire": 450,
      "mis": 451,
      "trait": 452,
      "dre": 453,
      "el": 454,
      "fi": 455,
      "pend": 456,
      "pos": 457,
      "char": 458,
      "fon": 459,
      "ence": 460,
      "fer": 461,
      "ign": 462,
      "mort": 463,
      "semb": 464,
      "mieux": 465,
      "eût": 466,
      "mot": 467,
      "rai": 468,
      "der": 469,
      "esprit": 470,
      "illes": 471,
      "lion": 472,
      "enfin": 473,
      "cou": 474,
      "font": 475,
      "gent": 476,
      "amour": 477,
      "imp": 478,
      "souv": 479,
      "vois": 480,
      "encor": 481,
      "certain": 482,
      "eau": 483,
      "sant": 484,
      "chat": 485,
      "sage": 486,
      "jam": 487,
      "roi": 488,
      "prend": 489,
      "pau": 490,
      "donn": 491,
      "sait": 492,
      "sous": 493,
      "ques": 494,
      "affaire": 495,
      "femme": 496,
      "heure": 497,
      "tent": 498,
      "its": 499,
      "ilà": 500,
      "pré": 501,
      "voilà": 502,
      "ds": 503,
      "pou": 504,
      "sau": 505,
      "cela": 506,
      "jamais": 507,
      "aille": 508,
      "ayant": 509,
      "pendant": 510,
      "pen": 511,
      "rat": 512,
      "sit": 513,
      "prin": 514,
      "èrent": 515,
      "rer": 516,
      "irent": 517,
      "sitôt": 518,
      "ale": 519,
      "ca": 520,
      "cent": 521,
      "raison": 522,
      "po": 523,
      "pla": 524,
      "père": 525,
      "pie": 526,
      "sin": 527,
      "vent": 528,
      "seul": 529,
      "urs": 530,
      "suis": 531,
      "gar": 532,
      "som": 533,
      "tom": 534,
      "erre": 535,
      "avoir": 536,
      "vos": 537,
      "mit": 538,
      "nouv": 539,
      "oc": 540,
      "ps": 541,
      "sais": 542,
      "ten": 543,
      "tête": 544,
      "lieu": 545,
      "app": 546,
      "assez": 547,
      "jupit": 548,
      "jupiter": 549,
      "soin": 550,
      "soit": 551,
      "uit": 552,
      "tra": 553,
      "bout": 554,
      "fa": 555,
      "gé": 556,
      "ici": 557,
      "mo": 558,
      "ta": 559,
      "prendre": 560,
      "compa": 561,
      "plais": 562,
      "fable": 563,
      "tin": 564,
      "avant": 565,
      "autres": 566,
      "march": 567,
      "........": 568,
      "aussitôt": 569,
      "animal": 570,
      "nom": 571,
      "air": 572,
      "ante": 573,
      "seau": 574,
      "arri": 575,
      "cha": 576,
      "étant": 577,
      "cours": 578,
      "peine": 579,
      "premi": 580,
      "pauvre": 581,
      "ges": 582,
      "gis": 583,
      "nat": 584,
      "pi": 585,
      "pouv": 586,
      "ton": 587,
      "ist": 588,
      "conn": 589,
      "cas": 590,
      "ceux": 591,
      "men": 592,
      "âne": 593,
      "auc": 594,
      "chant": 595,
      "pare": 596,
      "bou": 597,
      "min": 598,
      "dem": 599,
      "allait": 600,
      "court": 601,
      "gue": 602,
      "pay": 603,
      "après": 604,
      "hab": 605,
      "honn": 606,
      "ière": 607,
      "maux": 608,
      "oie": 609,
      "chien": 610,
      "celle": 611,
      "lut": 612,
      "grâ": 613,
      "let": 614,
      "lez": 615,
      "las": 616,
      "prés": 617,
      "ami": 618,
      "peuple": 619,
      "souvent": 620,
      "compagn": 621,
      "da": 622,
      "sot": 623,
      "ue": 624,
      "ît": 625,
      "onde": 626,
      "quit": 627,
      "prom": 628,
      "trois": 629,
      "sui": 630,
      "monde": 631,
      "long": 632,
      "fils": 633,
      "go": 634,
      "haut": 635,
      "veut": 636,
      "yeux": 637,
      "éc": 638,
      "ail": 639,
      "seign": 640,
      "lant": 641,
      "veux": 642,
      "chan": 643,
      "cham": 644,
      "voit": 645,
      "sus": 646,
      "donne": 647,
      "mains": 648,
      "souris": 649,
      "ad": 650,
      "belle": 651,
      "four": 652,
      "off": 653,
      "use": 654,
      "arr": 655,
      "tri": 656,
      "comp": 657,
      "serv": 658,
      "laisse": 659,
      "im": 660,
      "ore": 661,
      "vin": 662,
      "ette": 663,
      "art": 664,
      "ères": 665,
      "gré": 666,
      "rép": 667,
      "bonne": 668,
      "dame": 669,
      "bas": 670,
      "gl": 671,
      "jou": 672,
      "rend": 673,
      "vien": 674,
      "val": 675,
      "écr": 676,
      "êtes": 677,
      "qua": 678,
      "argent": 679,
      "eff": 680,
      "hé": 681,
      "ié": 682,
      "ile": 683,
      "lou": 684,
      "lit": 685,
      "mor": 686,
      "nes": 687,
      "vain": 688,
      "rez": 689,
      "ché": 690,
      "ours": 691,
      "core": 692,
      "bli": 693,
      "cé": 694,
      "lan": 695,
      "ol": 696,
      "pé": 697,
      "rom": 698,
      "soi": 699,
      "ers": 700,
      "trav": 701,
      "avent": 702,
      "toutes": 703,
      "resse": 704,
      "terre": 705,
      "enfants": 706,
      "fortune": 707,
      "droit": 708,
      "animaux": 709,
      "bois": 710,
      "loin": 711,
      "mau": 712,
      "pér": 713,
      "soup": 714,
      "encore": 715,
      "ret": 716,
      "cependant": 717,
      "person": 718,
      "plain": 719,
      "disait": 720,
      "pieds": 721,
      "plaisir": 722,
      "fou": 723,
      "gle": 724,
      "mour": 725,
      "mont": 726,
      "toi": 727,
      "esse": 728,
      "sire": 729,
      "jusqu": 730,
      "marchand": 731,
      "grâce": 732,
      "bi": 733,
      "cit": 734,
      "vu": 735,
      "quer": 736,
      "ande": 737,
      "trés": 738,
      "autant": 739,
      "iers": 740,
      "corps": 741,
      "maint": 742,
      "beaucoup": 743,
      "fond": 744,
      "prince": 745,
      "singe": 746,
      "gal": 747,
      "mou": 748,
      "vrai": 749,
      "dez": 750,
      "quant": 751,
      "uni": 752,
      "pren": 753,
      "sujet": 754,
      "mots": 755,
      "fu": 756,
      "gard": 757,
      "porte": 758,
      "vant": 759,
      "âme": 760,
      "aign": 761,
      "prét": 762,
      "étaient": 763,
      "cré": 764,
      "gros": 765,
      "plein": 766,
      "voici": 767,
      "berger": 768,
      ";;": 769,
      "bat": 770,
      "cam": 771,
      "oiseau": 772,
      "contr": 773,
      "croy": 774,
      "ouver": 775,
      "perd": 776,
      "logis": 777,
      "force": 778,
      "nature": 779,
      "hér": 780,
      "mille": 781,
      "pres": 782,
      "vé": 783,
      "vais": 784,
      "étr": 785,
      "aise": 786,
      "ill": 787,
      "lat": 788,
      "nez": 789,
      "trom": 790,
      "troup": 791,
      "alors": 792,
      "content": 793,
      "lie": 794,
      "lieux": 795,
      "cru": 796,
      "ables": 797,
      "phil": 798,
      "venir": 799,
      "mettre": 800,
      "heureux": 801,
      "bour": 802,
      "cs": 803,
      "ct": 804,
      "dan": 805,
      "fau": 806,
      "loi": 807,
      "ner": 808,
      "ru": 809,
      "sens": 810,
      "ule": 811,
      "çon": 812,
      "tru": 813,
      "sons": 814,
      "jeune": 815,
      "été": 816,
      "comment": 817,
      "ciel": 818,
      "quelques": 819,
      "exemp": 820,
      "souff": 821,
      "voisin": 822,
      "bes": 823,
      "dor": 824,
      "dès": 825,
      "ga": 826,
      "mat": 827,
      "mout": 828,
      "raient": 829,
      "tôt": 830,
      "ème": 831,
      "êt": 832,
      "ceci": 833,
      "avaient": 834,
      "avez": 835,
      "crois": 836,
      "appro": 837,
      "appe": 838,
      "abord": 839,
      "col": 840,
      "petits": 841,
      "présent": 842,
      "seigneur": 843,
      "aventure": 844,
      "fs": 845,
      "her": 846,
      "lles": 847,
      "put": 848,
      "rou": 849,
      "th": 850,
      "ète": 851,
      "éch": 852,
      "aim": 853,
      "sieurs": 854,
      "passe": 855,
      "crut": 856,
      "ouvr": 857,
      "mage": 858,
      "maison": 859,
      "tient": 860,
      "devant": 861,
      "petit": 862,
      "habit": 863,
      "bles": 864,
      "but": 865,
      "mom": 866,
      "mère": 867,
      "ro": 868,
      "œu": 869,
      "aurait": 870,
      "tez": 871,
      "dessus": 872,
      "conse": 873,
      "...": 874,
      "faisait": 875,
      "donner": 876,
      "somme": 877,
      "honneur": 878,
      "cau": 879,
      "emb": 880,
      "lors": 881,
      "ope": 882,
      "peur": 883,
      "st": 884,
      "tir": 885,
      "vis": 886,
      "vres": 887,
      "vint": 888,
      "viens": 889,
      "épou": 890,
      "endu": 891,
      "retour": 892,
      "trou": 893,
      "cri": 894,
      "diff": 895,
      "déf": 896,
      "serait": 897,
      "aper": 898,
      "ments": 899,
      "chercher": 900,
      "doux": 901,
      "nouveau": 902,
      "bête": 903,
      "dra": 904,
      "jà": 905,
      "nul": 906,
      "pin": 907,
      "sorte": 908,
      "tort": 909,
      "seule": 910,
      "ches": 911,
      "chiens": 912,
      "songe": 913,
      "avis": 914,
      "all": 915,
      "crain": 916,
      "vieux": 917,
      "sert": 918,
      "hommes": 919,
      "agne": 920,
      "trouva": 921,
      "juge": 922,
      "voix": 923,
      "sembla": 924,
      "dent": 925,
      "dam": 926,
      "heur": 927,
      "hist": 928,
      "na": 929,
      "sse": 930,
      "èvre": 931,
      "enne": 932,
      "telle": 933,
      "très": 934,
      "parmi": 935,
      "passer": 936,
      "amis": 937,
      "cro": 938,
      "déjà": 939,
      "publi": 940,
      "mari": 941,
      "bruit": 942,
      "aucun": 943,
      "quatre": 944,
      "trésor": 945,
      "gre": 946,
      "har": 947,
      "mir": 948,
      "mér": 949,
      "aigle": 950,
      "quet": 951,
      "chasse": 952,
      "ass": 953,
      "ends": 954,
      "reste": 955,
      "quelqu": 956,
      "voyant": 957,
      "trouve": 958,
      "porter": 959,
      "grands": 960,
      "prix": 961,
      "chaque": 962,
      "premier": 963,
      "demeure": 964,
      "histoire": 965,
      "adieu": 966,
      "cl": 967,
      "foi": 968,
      "lent": 969,
      "mu": 970,
      "oeu": 971,
      "pens": 972,
      "ris": 973,
      "roit": 974,
      "reprit": 975,
      "ceau": 976,
      "tres": 977,
      "destin": 978,
      "aller": 979,
      "pourquoi": 980,
      "déli": 981,
      "pein": 982,
      "guerre": 983,
      "coeur": 984,
      "soins": 985,
      "dents": 986,
      "fût": 987,
      "ique": 988,
      "morte": 989,
      "pè": 990,
      "pai": 991,
      "pent": 992,
      "pot": 993,
      "deman": 994,
      "entôt": 995,
      "iste": 996,
      "croit": 997,
      "endroit": 998,
      "cieux": 999
    },
    "merges": [
      [
        "e",
        "n"
      ],
      [
        "l",
        "e"
      ],
      [
        "o",
        "u"
      ],
      [
        "r",
        "e"
      ],
      [
        "a",
        "i"
      ],
      [
        "o",
        "n"
      ],
      [
        "d",
        "e"
      ],
      [
        "q",
        "u"
      ],
      [
        "a",
        "n"
      ],
      [
        "e",
        "r"
      ],
      [
        "i",
        "t"
      ],
      [
        "e",
        "s"
      ],
      [
        "a",
        "u"
      ],
      [
        "e",
        "t"
      ],
      [
        "i",
        "l"
      ],
      [
        "u",
        "n"
      ],
      [
        "l",
        "a"
      ],
      [
        "en",
        "t"
      ],
      [
        "s",
        "e"
      ],
      [
        "o",
        "i"
      ],
      [
        "e",
        "u"
      ],
      [
        "a",
        "r"
      ],
      [
        "ai",
        "t"
      ],
      [
        "c",
        "h"
      ],
      [
        "qu",
        "e"
      ],
      [
        "ou",
        "r"
      ],
      [
        "t",
        "e"
      ],
      [
        "c",
        "e"
      ],
      [
        "o",
        "r"
      ],
      [
        "le",
        "s"
      ],
      [
        "n",
        "e"
      ],
      [
        "an",
        "t"
      ],
      [
        "i",
        "s"
      ],
      [
        "i",
        "n"
      ],
      [
        "p",
        "r"
      ],
      [
        "ou",
        "s"
      ],
      [
        "t",
        "re"
      ],
      [
        "o",
        "m"
      ],
      [
        "u",
        "r"
      ],
      [
        "a",
        "s"
      ],
      [
        "m",
        "e"
      ],
      [
        "ai",
        "s"
      ],
      [
        "l",
        "u"
      ],
      [
        "t",
        "r"
      ],
      [
        "s",
        "on"
      ],
      [
        "s",
        "i"
      ],
      [
        "es",
        "t"
      ],
      [
        "a",
        "v"
      ],
      [
        "p",
        "ar"
      ],
      [
        "i",
        "en"
      ],
      [
        "a",
        "t"
      ],
      [
        "g",
        "e"
      ],
      [
        "<",
        "|"
      ],
      [
        "j",
        "e"
      ],
      [
        "|",
        ">"
      ],
      [
        "de",
        "s"
      ],
      [
        "a",
        "l"
      ],
      [
        "t",
        "ou"
      ],
      [
        "d",
        "u"
      ],
      [
        "an",
        "s"
      ],
      [
        "s",
        "a"
      ],
      [
        "l",
        "le"
      ],
      [
        "é",
        "t"
      ],
      [
        "p",
        "our"
      ],
      [
        "qu",
        "i"
      ],
      [
        "v",
        "ous"
      ],
      [
        "i",
        "r"
      ],
      [
        "c",
        "on"
      ],
      [
        "p",
        "as"
      ],
      [
        "eu",
        "x"
      ],
      [
        "ai",
        "n"
      ],
      [
        "or",
        "t"
      ],
      [
        "l",
        "i"
      ],
      [
        "un",
        "e"
      ],
      [
        "a",
        "m"
      ],
      [
        "d",
        "it"
      ],
      [
        "t",
        "it"
      ],
      [
        "v",
        "o"
      ],
      [
        "eu",
        "r"
      ],
      [
        "oi",
        "n"
      ],
      [
        "c",
        "om"
      ],
      [
        "tit",
        "re"
      ],
      [
        "c",
        "r"
      ],
      [
        "d",
        "i"
      ],
      [
        "en",
        "d"
      ],
      [
        "tou",
        "t"
      ],
      [
        "p",
        "lu"
      ],
      [
        "au",
        "x"
      ],
      [
        "le",
        "ur"
      ],
      [
        ".",
        "."
      ],
      [
        "m",
        "p"
      ],
      [
        "ou",
        "v"
      ],
      [
        "oi",
        "s"
      ],
      [
        "v",
        "i"
      ],
      [
        "è",
        "re"
      ],
      [
        "lu",
        "i"
      ],
      [
        "d",
        "é"
      ],
      [
        "g",
        "r"
      ],
      [
        "on",
        "t"
      ],
      [
        "s",
        "u"
      ],
      [
        "c",
        "i"
      ],
      [
        "plu",
        "s"
      ],
      [
        "m",
        "a"
      ],
      [
        "s",
        "er"
      ],
      [
        "ai",
        "re"
      ],
      [
        "a",
        "p"
      ],
      [
        "m",
        "ent"
      ],
      [
        "a",
        "b"
      ],
      [
        "u",
        "t"
      ],
      [
        "b",
        "ien"
      ],
      [
        "c",
        "es"
      ],
      [
        "s",
        "ur"
      ],
      [
        "ch",
        "e"
      ],
      [
        "on",
        "s"
      ],
      [
        "f",
        "ait"
      ],
      [
        "e",
        "lle"
      ],
      [
        "o",
        "s"
      ],
      [
        "an",
        "d"
      ],
      [
        "c",
        "et"
      ],
      [
        "d",
        "ans"
      ],
      [
        "au",
        "tre"
      ],
      [
        "m",
        "on"
      ],
      [
        "ou",
        "p"
      ],
      [
        "é",
        "s"
      ],
      [
        "p",
        "eu"
      ],
      [
        "f",
        "f"
      ],
      [
        "au",
        "t"
      ],
      [
        "m",
        "ais"
      ],
      [
        "s",
        "es"
      ],
      [
        "n",
        "ous"
      ],
      [
        "b",
        "e"
      ],
      [
        "g",
        "n"
      ],
      [
        "re",
        "s"
      ],
      [
        "j",
        "our"
      ],
      [
        "r",
        "i"
      ],
      [
        "ai",
        "ent"
      ],
      [
        "p",
        "u"
      ],
      [
        "que",
        "l"
      ],
      [
        "il",
        "s"
      ],
      [
        "m",
        "i"
      ],
      [
        "a",
        "c"
      ],
      [
        "u",
        "x"
      ],
      [
        "a",
        "ge"
      ],
      [
        "é",
        "e"
      ],
      [
        "c",
        "our"
      ],
      [
        "en",
        "s"
      ],
      [
        "m",
        "es"
      ],
      [
        "pr",
        "o"
      ],
      [
        "é",
        "r"
      ],
      [
        "se",
        "p"
      ],
      [
        "oi",
        "r"
      ],
      [
        "p",
        "e"
      ],
      [
        "g",
        "u"
      ],
      [
        "d",
        "on"
      ],
      [
        "v",
        "er"
      ],
      [
        "oin",
        "t"
      ],
      [
        "p",
        "a"
      ],
      [
        "o",
        "t"
      ],
      [
        "i",
        "er"
      ],
      [
        "ét",
        "ait"
      ],
      [
        "p",
        "er"
      ],
      [
        "p",
        "oint"
      ],
      [
        "u",
        "s"
      ],
      [
        "il",
        "le"
      ],
      [
        "i",
        "e"
      ],
      [
        "o",
        "it"
      ],
      [
        "s",
        "ans"
      ],
      [
        "cet",
        "te"
      ],
      [
        "t",
        "ant"
      ],
      [
        "c",
        "o"
      ],
      [
        "g",
        "er"
      ],
      [
        "m",
        "oi"
      ],
      [
        "t",
        "ous"
      ],
      [
        "u",
        "re"
      ],
      [
        "m",
        "al"
      ],
      [
        "ô",
        "t"
      ],
      [
        "p",
        "l"
      ],
      [
        "ar",
        "d"
      ],
      [
        "c",
        "or"
      ],
      [
        "r",
        "é"
      ],
      [
        "t",
        "er"
      ],
      [
        "e",
        "z"
      ],
      [
        "t",
        "i"
      ],
      [
        "d",
        "is"
      ],
      [
        "en",
        "f"
      ],
      [
        "è",
        "s"
      ],
      [
        "de",
        "ux"
      ],
      [
        "ch",
        "er"
      ],
      [
        "h",
        "om"
      ],
      [
        "ê",
        "me"
      ],
      [
        "pu",
        "is"
      ],
      [
        "f",
        "ut"
      ],
      [
        "m",
        "ain"
      ],
      [
        "r",
        "en"
      ],
      [
        "c",
        "er"
      ],
      [
        "b",
        "on"
      ],
      [
        "m",
        "ar"
      ],
      [
        "quel",
        "que"
      ],
      [
        "te",
        "mp"
      ],
      [
        "com",
        "me"
      ],
      [
        "c",
        "ar"
      ],
      [
        "n",
        "o"
      ],
      [
        "e",
        "x"
      ],
      [
        "m",
        "an"
      ],
      [
        "..",
        ".."
      ],
      [
        "f",
        "aire"
      ],
      [
        "g",
        "ens"
      ],
      [
        "v",
        "e"
      ],
      [
        "t",
        "u"
      ],
      [
        "m",
        "b"
      ],
      [
        "e",
        "c"
      ],
      [
        "f",
        "ort"
      ],
      [
        "r",
        "a"
      ],
      [
        "son",
        "t"
      ],
      [
        "av",
        "ait"
      ],
      [
        "û",
        "t"
      ],
      [
        "m",
        "ême"
      ],
      [
        "as",
        "se"
      ],
      [
        "î",
        "tre"
      ],
      [
        "au",
        "s"
      ],
      [
        "av",
        "ec"
      ],
      [
        "f",
        "r"
      ],
      [
        "ou",
        "t"
      ],
      [
        "u",
        "l"
      ],
      [
        "ê",
        "tre"
      ],
      [
        "n",
        "i"
      ],
      [
        "l",
        "à"
      ],
      [
        "f",
        "it"
      ],
      [
        "t",
        "es"
      ],
      [
        "v",
        "re"
      ],
      [
        "e",
        "mp"
      ],
      [
        "p",
        "h"
      ],
      [
        "jour",
        "s"
      ],
      [
        "ê",
        "te"
      ],
      [
        "or",
        "te"
      ],
      [
        "hom",
        "me"
      ],
      [
        "i",
        "ne"
      ],
      [
        "o",
        "se"
      ],
      [
        "r",
        "ais"
      ],
      [
        "ab",
        "le"
      ],
      [
        "leur",
        "s"
      ],
      [
        "v",
        "en"
      ],
      [
        "an",
        "ce"
      ],
      [
        "vo",
        "y"
      ],
      [
        "l",
        "é"
      ],
      [
        "b",
        "r"
      ],
      [
        "pr",
        "it"
      ],
      [
        "in",
        "s"
      ],
      [
        "eur",
        "s"
      ],
      [
        "temp",
        "s"
      ],
      [
        "end",
        "re"
      ],
      [
        "a",
        "g"
      ],
      [
        "c",
        "oup"
      ],
      [
        "f",
        "aut"
      ],
      [
        "o",
        "y"
      ],
      [
        "tr",
        "ouv"
      ],
      [
        "ent",
        "re"
      ],
      [
        "vi",
        "e"
      ],
      [
        "l",
        "on"
      ],
      [
        "no",
        "tre"
      ],
      [
        "m",
        "é"
      ],
      [
        "eu",
        "t"
      ],
      [
        "p",
        "le"
      ],
      [
        "v",
        "ou"
      ],
      [
        "ant",
        "s"
      ],
      [
        "be",
        "au"
      ],
      [
        "r",
        "ien"
      ],
      [
        "m",
        "oin"
      ],
      [
        "l",
        "ait"
      ],
      [
        "qu",
        "and"
      ],
      [
        "j",
        "u"
      ],
      [
        "l",
        "oup"
      ],
      [
        "qu",
        "oi"
      ],
      [
        "l",
        "o"
      ],
      [
        "n",
        "on"
      ],
      [
        "m",
        "et"
      ],
      [
        "peu",
        "t"
      ],
      [
        "t",
        "s"
      ],
      [
        "b",
        "re"
      ],
      [
        "d",
        "r"
      ],
      [
        "an",
        "i"
      ],
      [
        "ma",
        "ître"
      ],
      [
        "d",
        "ou"
      ],
      [
        "h",
        "u"
      ],
      [
        "s",
        "é"
      ],
      [
        "v",
        "it"
      ],
      [
        "ver",
        "s"
      ],
      [
        "s",
        "ort"
      ],
      [
        "t",
        "our"
      ],
      [
        "le",
        "r"
      ],
      [
        "l",
        "ais"
      ],
      [
        "c",
        "u"
      ],
      [
        "on",
        "n"
      ],
      [
        "p",
        "ort"
      ],
      [
        "v",
        "a"
      ],
      [
        "v",
        "oir"
      ],
      [
        "n",
        "u"
      ],
      [
        "eu",
        "re"
      ],
      [
        "vi",
        "ent"
      ],
      [
        "par",
        "t"
      ],
      [
        "che",
        "z"
      ],
      [
        "o",
        "p"
      ],
      [
        "e",
        "m"
      ],
      [
        "v",
        "oi"
      ],
      [
        "j",
        "et"
      ],
      [
        "in",
        "t"
      ],
      [
        "o",
        "b"
      ],
      [
        "ent",
        "s"
      ],
      [
        "a",
        "ff"
      ],
      [
        "f",
        "in"
      ],
      [
        "f",
        "ais"
      ],
      [
        "t",
        "é"
      ],
      [
        "p",
        "it"
      ],
      [
        "ai",
        "ne"
      ],
      [
        "tou",
        "jours"
      ],
      [
        "vo",
        "tre"
      ],
      [
        "di",
        "re"
      ],
      [
        "cer",
        "t"
      ],
      [
        "p",
        "re"
      ],
      [
        "gr",
        "and"
      ],
      [
        "oi",
        "re"
      ],
      [
        "i",
        "on"
      ],
      [
        "j",
        "us"
      ],
      [
        "s",
        "our"
      ],
      [
        "ch",
        "ose"
      ],
      [
        "at",
        "t"
      ],
      [
        "ain",
        "si"
      ],
      [
        "di",
        "eux"
      ],
      [
        "s",
        "o"
      ],
      [
        "te",
        "l"
      ],
      [
        "pr",
        "ès"
      ],
      [
        "at",
        "s"
      ],
      [
        "don",
        "c"
      ],
      [
        "f",
        "ois"
      ],
      [
        "g",
        "ne"
      ],
      [
        "n",
        "os"
      ],
      [
        "an",
        "g"
      ],
      [
        "com",
        "m"
      ],
      [
        "r",
        "ent"
      ],
      [
        "it",
        "é"
      ],
      [
        "or",
        "s"
      ],
      [
        "ien",
        "s"
      ],
      [
        "tou",
        "te"
      ],
      [
        "con",
        "tre"
      ],
      [
        "ren",
        "ard"
      ],
      [
        "f",
        "or"
      ],
      [
        "â",
        "t"
      ],
      [
        "ch",
        "ac"
      ],
      [
        "pr",
        "is"
      ],
      [
        "di",
        "eu"
      ],
      [
        "it",
        "e"
      ],
      [
        "or",
        "d"
      ],
      [
        "aus",
        "si"
      ],
      [
        "moin",
        "s"
      ],
      [
        "o",
        "ù"
      ],
      [
        "r",
        "ait"
      ],
      [
        "s",
        "ou"
      ],
      [
        "pr",
        "i"
      ],
      [
        "tr",
        "op"
      ],
      [
        "m",
        "er"
      ],
      [
        "s",
        "ent"
      ],
      [
        "a",
        "y"
      ],
      [
        "f",
        "em"
      ],
      [
        "de",
        "v"
      ],
      [
        "chac",
        "un"
      ],
      [
        "d",
        "ont"
      ],
      [
        "n",
        "é"
      ],
      [
        "b",
        "le"
      ],
      [
        "p",
        "et"
      ],
      [
        "la",
        "r"
      ],
      [
        "ce",
        "lui"
      ],
      [
        "b",
        "er"
      ],
      [
        "i",
        "re"
      ],
      [
        "m",
        "is"
      ],
      [
        "tr",
        "ait"
      ],
      [
        "d",
        "re"
      ],
      [
        "e",
        "l"
      ],
      [
        "f",
        "i"
      ],
      [
        "p",
        "end"
      ],
      [
        "p",
        "os"
      ],
      [
        "ch",
        "ar"
      ],
      [
        "f",
        "on"
      ],
      [
        "en",
        "ce"
      ],
      [
        "f",
        "er"
      ],
      [
        "i",
        "gn"
      ],
      [
        "m",
        "ort"
      ],
      [
        "se",
        "mb"
      ],
      [
        "mi",
        "eux"
      ],
      [
        "e",
        "ût"
      ],
      [
        "m",
        "ot"
      ],
      [
        "r",
        "ai"
      ],
      [
        "de",
        "r"
      ],
      [
        "es",
        "prit"
      ],
      [
        "il",
        "les"
      ],
      [
        "li",
        "on"
      ],
      [
        "enf",
        "in"
      ],
      [
        "c",
        "ou"
      ],
      [
        "f",
        "ont"
      ],
      [
        "g",
        "ent"
      ],
      [
        "am",
        "our"
      ],
      [
        "i",
        "mp"
      ],
      [
        "s",
        "ouv"
      ],
      [
        "v",
        "ois"
      ],
      [
        "en",
        "cor"
      ],
      [
        "cert",
        "ain"
      ],
      [
        "e",
        "au"
      ],
      [
        "s",
        "ant"
      ],
      [
        "ch",
        "at"
      ],
      [
        "sa",
        "ge"
      ],
      [
        "j",
        "am"
      ],
      [
        "r",
        "oi"
      ],
      [
        "pr",
        "end"
      ],
      [
        "p",
        "au"
      ],
      [
        "don",
        "n"
      ],
      [
        "s",
        "ait"
      ],
      [
        "s",
        "ous"
      ],
      [
        "qu",
        "es"
      ],
      [
        "aff",
        "aire"
      ],
      [
        "fem",
        "me"
      ],
      [
        "h",
        "eure"
      ],
      [
        "t",
        "ent"
      ],
      [
        "it",
        "s"
      ],
      [
        "il",
        "à"
      ],
      [
        "pr",
        "é"
      ],
      [
        "vo",
        "ilà"
      ],
      [
        "d",
        "s"
      ],
      [
        "p",
        "ou"
      ],
      [
        "s",
        "au"
      ],
      [
        "ce",
        "la"
      ],
      [
        "jam",
        "ais"
      ],
      [
        "ai",
        "lle"
      ],
      [
        "ay",
        "ant"
      ],
      [
        "pend",
        "ant"
      ],
      [
        "p",
        "en"
      ],
      [
        "r",
        "at"
      ],
      [
        "s",
        "it"
      ],
      [
        "pr",
        "in"
      ],
      [
        "è",
        "rent"
      ],
      [
        "re",
        "r"
      ],
      [
        "ir",
        "ent"
      ],
      [
        "sit",
        "ôt"
      ],
      [
        "a",
        "le"
      ],
      [
        "c",
        "a"
      ],
      [
        "c",
        "ent"
      ],
      [
        "rais",
        "on"
      ],
      [
        "p",
        "o"
      ],
      [
        "p",
        "la"
      ],
      [
        "p",
        "ère"
      ],
      [
        "p",
        "ie"
      ],
      [
        "s",
        "in"
      ],
      [
        "v",
        "ent"
      ],
      [
        "se",
        "ul"
      ],
      [
        "ur",
        "s"
      ],
      [
        "su",
        "is"
      ],
      [
        "g",
        "ar"
      ],
      [
        "s",
        "om"
      ],
      [
        "t",
        "om"
      ],
      [
        "er",
        "re"
      ],
      [
        "av",
        "oir"
      ],
      [
        "vo",
        "s"
      ],
      [
        "m",
        "it"
      ],
      [
        "n",
        "ouv"
      ],
      [
        "o",
        "c"
      ],
      [
        "p",
        "s"
      ],
      [
        "s",
        "ais"
      ],
      [
        "t",
        "en"
      ],
      [
        "t",
        "ête"
      ],
      [
        "li",
        "eu"
      ],
      [
        "ap",
        "p"
      ],
      [
        "asse",
        "z"
      ],
      [
        "ju",
        "pit"
      ],
      [
        "jupit",
        "er"
      ],
      [
        "s",
        "oin"
      ],
      [
        "s",
        "oit"
      ],
      [
        "u",
        "it"
      ],
      [
        "tr",
        "a"
      ],
      [
        "b",
        "out"
      ],
      [
        "f",
        "a"
      ],
      [
        "g",
        "é"
      ],
      [
        "i",
        "ci"
      ],
      [
        "m",
        "o"
      ],
      [
        "t",
        "a"
      ],
      [
        "pr",
        "endre"
      ],
      [
        "com",
        "pa"
      ],
      [
        "pl",
        "ais"
      ],
      [
        "f",
        "able"
      ],
      [
        "t",
        "in"
      ],
      [
        "av",
        "ant"
      ],
      [
        "autre",
        "s"
      ],
      [
        "mar",
        "ch"
      ],
      [
        "....",
        "...."
      ],
      [
        "aus",
        "sitôt"
      ],
      [
        "ani",
        "mal"
      ],
      [
        "n",
        "om"
      ],
      [
        "ai",
        "r"
      ],
      [
        "an",
        "te"
      ],
      [
        "se",
        "au"
      ],
      [
        "ar",
        "ri"
      ],
      [
        "ch",
        "a"
      ],
      [
        "ét",
        "ant"
      ],
      [
        "cour",
        "s"
      ],
      [
        "pe",
        "ine"
      ],
      [
        "pre",
        "mi"
      ],
      [
        "pau",
        "vre"
      ],
      [
        "g",
        "es"
      ],
      [
        "g",
        "is"
      ],
      [
        "n",
        "at"
      ],
      [
        "p",
        "i"
      ],
      [
        "p",
        "ouv"
      ],
      [
        "t",
        "on"
      ],
      [
        "is",
        "t"
      ],
      [
        "con",
        "n"
      ],
      [
        "c",
        "as"
      ],
      [
        "c",
        "eux"
      ],
      [
        "m",
        "en"
      ],
      [
        "â",
        "ne"
      ],
      [
        "au",
        "c"
      ],
      [
        "ch",
        "ant"
      ],
      [
        "pa",
        "re"
      ],
      [
        "b",
        "ou"
      ],
      [
        "m",
        "in"
      ],
      [
        "de",
        "m"
      ],
      [
        "al",
        "lait"
      ],
      [
        "cour",
        "t"
      ],
      [
        "gu",
        "e"
      ],
      [
        "pa",
        "y"
      ],
      [
        "a",
        "près"
      ],
      [
        "h",
        "ab"
      ],
      [
        "h",
        "onn"
      ],
      [
        "i",
        "ère"
      ],
      [
        "m",
        "aux"
      ],
      [
        "oi",
        "e"
      ],
      [
        "ch",
        "ien"
      ],
      [
        "ce",
        "lle"
      ],
      [
        "lu",
        "t"
      ],
      [
        "gr",
        "â"
      ],
      [
        "le",
        "t"
      ],
      [
        "le",
        "z"
      ],
      [
        "la",
        "s"
      ],
      [
        "pr",
        "és"
      ],
      [
        "am",
        "i"
      ],
      [
        "peu",
        "ple"
      ],
      [
        "souv",
        "ent"
      ],
      [
        "compa",
        "gn"
      ],
      [
        "d",
        "a"
      ],
      [
        "s",
        "ot"
      ],
      [
        "u",
        "e"
      ],
      [
        "î",
        "t"
      ],
      [
        "on",
        "de"
      ],
      [
        "qu",
        "it"
      ],
      [
        "pr",
        "om"
      ],
      [
        "tr",
        "ois"
      ],
      [
        "su",
        "i"
      ],
      [
        "mon",
        "de"
      ],
      [
        "lon",
        "g"
      ],
      [
        "f",
        "ils"
      ],
      [
        "g",
        "o"
      ],
      [
        "h",
        "aut"
      ],
      [
        "v",
        "eut"
      ],
      [
        "y",
        "eux"
      ],
      [
        "é",
        "c"
      ],
      [
        "ai",
        "l"
      ],
      [
        "se",
        "ign"
      ],
      [
        "l",
        "ant"
      ],
      [
        "v",
        "eux"
      ],
      [
        "ch",
        "an"
      ],
      [
        "ch",
        "am"
      ],
      [
        "vo",
        "it"
      ],
      [
        "su",
        "s"
      ],
      [
        "don",
        "ne"
      ],
      [
        "main",
        "s"
      ],
      [
        "sour",
        "is"
      ],
      [
        "a",
        "d"
      ],
      [
        "b",
        "elle"
      ],
      [
        "f",
        "our"
      ],
      [
        "o",
        "ff"
      ],
      [
        "u",
        "se"
      ],
      [
        "ar",
        "r"
      ],
      [
        "tr",
        "i"
      ],
      [
        "com",
        "p"
      ],
      [
        "ser",
        "v"
      ],
      [
        "lais",
        "se"
      ],
      [
        "i",
        "m"
      ],
      [
        "o",
        "re"
      ],
      [
        "v",
        "in"
      ],
      [
        "et",
        "te"
      ],
      [
        "ar",
        "t"
      ],
      [
        "ère",
        "s"
      ],
      [
        "gr",
        "é"
      ],
      [
        "ré",
        "p"
      ],
      [
        "bon",
        "ne"
      ],
      [
        "da",
        "me"
      ],
      [
        "b",
        "as"
      ],
      [
        "g",
        "l"
      ],
      [
        "j",
        "ou"
      ],
      [
        "r",
        "end"
      ],
      [
        "v",
        "ien"
      ],
      [
        "v",
        "al"
      ],
      [
        "é",
        "cr"
      ],
      [
        "ê",
        "tes"
      ],
      [
        "qu",
        "a"
      ],
      [
        "ar",
        "gent"
      ],
      [
        "e",
        "ff"
      ],
      [
        "h",
        "é"
      ],
      [
        "i",
        "é"
      ],
      [
        "i",
        "le"
      ],
      [
        "l",
        "ou"
      ],
      [
        "l",
        "it"
      ],
      [
        "m",
        "or"
      ],
      [
        "n",
        "es"
      ],
      [
        "v",
        "ain"
      ],
      [
        "re",
        "z"
      ],
      [
        "ch",
        "é"
      ],
      [
        "our",
        "s"
      ],
      [
        "co",
        "re"
      ],
      [
        "b",
        "li"
      ],
      [
        "c",
        "é"
      ],
      [
        "l",
        "an"
      ],
      [
        "o",
        "l"
      ],
      [
        "p",
        "é"
      ],
      [
        "r",
        "om"
      ],
      [
        "s",
        "oi"
      ],
      [
        "er",
        "s"
      ],
      [
        "tr",
        "av"
      ],
      [
        "av",
        "ent"
      ],
      [
        "tout",
        "es"
      ],
      [
        "res",
        "se"
      ],
      [
        "ter",
        "re"
      ],
      [
        "enf",
        "ants"
      ],
      [
        "fort",
        "une"
      ],
      [
        "dr",
        "oit"
      ],
      [
        "ani",
        "maux"
      ],
      [
        "b",
        "ois"
      ],
      [
        "l",
        "oin"
      ],
      [
        "m",
        "au"
      ],
      [
        "p",
        "ér"
      ],
      [
        "s",
        "oup"
      ],
      [
        "en",
        "core"
      ],
      [
        "re",
        "t"
      ],
      [
        "ce",
        "pendant"
      ],
      [
        "per",
        "son"
      ],
      [
        "pl",
        "ain"
      ],
      [
        "dis",
        "ait"
      ],
      [
        "pie",
        "ds"
      ],
      [
        "plais",
        "ir"
      ],
      [
        "f",
        "ou"
      ],
      [
        "g",
        "le"
      ],
      [
        "m",
        "our"
      ],
      [
        "m",
        "ont"
      ],
      [
        "t",
        "oi"
      ],
      [
        "es",
        "se"
      ],
      [
        "si",
        "re"
      ],
      [
        "jus",
        "qu"
      ],
      [
        "march",
        "and"
      ],
      [
        "grâ",
        "ce"
      ],
      [
        "b",
        "i"
      ],
      [
        "c",
        "it"
      ],
      [
        "v",
        "u"
      ],
      [
        "qu",
        "er"
      ],
      [
        "an",
        "de"
      ],
      [
        "tr",
        "és"
      ],
      [
        "aut",
        "ant"
      ],
      [
        "ier",
        "s"
      ],
      [
        "cor",
        "ps"
      ],
      [
        "main",
        "t"
      ],
      [
        "beau",
        "coup"
      ],
      [
        "fon",
        "d"
      ],
      [
        "prin",
        "ce"
      ],
      [
        "sin",
        "ge"
      ],
      [
        "g",
        "al"
      ],
      [
        "m",
        "ou"
      ],
      [
        "v",
        "rai"
      ],
      [
        "de",
        "z"
      ],
      [
        "qu",
        "ant"
      ],
      [
        "un",
        "i"
      ],
      [
        "pr",
        "en"
      ],
      [
        "su",
        "jet"
      ],
      [
        "mot",
        "s"
      ],
      [
        "f",
        "u"
      ],
      [
        "g",
        "ard"
      ],
      [
        "p",
        "orte"
      ],
      [
        "v",
        "ant"
      ],
      [
        "â",
        "me"
      ],
      [
        "ai",
        "gn"
      ],
      [
        "pr",
        "ét"
      ],
      [
        "ét",
        "aient"
      ],
      [
        "cr",
        "é"
      ],
      [
        "gr",
        "os"
      ],
      [
        "ple",
        "in"
      ],
      [
        "voi",
        "ci"
      ],
      [
        "ber",
        "ger"
      ],
      [
        ";",
        ";"
      ],
      [
        "b",
        "at"
      ],
      [
        "c",
        "am"
      ],
      [
        "oi",
        "seau"
      ],
      [
        "con",
        "tr"
      ],
      [
        "cr",
        "oy"
      ],
      [
        "ouv",
        "er"
      ],
      [
        "per",
        "d"
      ],
      [
        "lo",
        "gis"
      ],
      [
        "for",
        "ce"
      ],
      [
        "nat",
        "ure"
      ],
      [
        "h",
        "ér"
      ],
      [
        "m",
        "ille"
      ],
      [
        "p",
        "res"
      ],
      [
        "v",
        "é"
      ],
      [
        "v",
        "ais"
      ],
      [
        "é",
        "tr"
      ],
      [
        "ai",
        "se"
      ],
      [
        "il",
        "l"
      ],
      [
        "la",
        "t"
      ],
      [
        "ne",
        "z"
      ],
      [
        "tr",
        "om"
      ],
      [
        "tr",
        "oup"
      ],
      [
        "al",
        "ors"
      ],
      [
        "con",
        "tent"
      ],
      [
        "li",
        "e"
      ],
      [
        "li",
        "eux"
      ],
      [
        "cr",
        "u"
      ],
      [
        "ab",
        "les"
      ],
      [
        "ph",
        "il"
      ],
      [
        "ven",
        "ir"
      ],
      [
        "met",
        "tre"
      ],
      [
        "heure",
        "ux"
      ],
      [
        "b",
        "our"
      ],
      [
        "c",
        "s"
      ],
      [
        "c",
        "t"
      ],
      [
        "d",
        "an"
      ],
      [
        "f",
        "au"
      ],
      [
        "l",
        "oi"
      ],
      [
        "n",
        "er"
      ],
      [
        "r",
        "u"
      ],
      [
        "s",
        "ens"
      ],
      [
        "u",
        "le"
      ],
      [
        "ç",
        "on"
      ],
      [
        "tr",
        "u"
      ],
      [
        "son",
        "s"
      ],
      [
        "je",
        "une"
      ],
      [
        "ét",
        "é"
      ],
      [
        "com",
        "ment"
      ],
      [
        "ci",
        "el"
      ],
      [
        "quel",
        "ques"
      ],
      [
        "ex",
        "emp"
      ],
      [
        "sou",
        "ff"
      ],
      [
        "vois",
        "in"
      ],
      [
        "b",
        "es"
      ],
      [
        "d",
        "or"
      ],
      [
        "d",
        "ès"
      ],
      [
        "g",
        "a"
      ],
      [
        "m",
        "at"
      ],
      [
        "m",
        "out"
      ],
      [
        "r",
        "aient"
      ],
      [
        "t",
        "ôt"
      ],
      [
        "è",
        "me"
      ],
      [
        "ê",
        "t"
      ],
      [
        "ce",
        "ci"
      ],
      [
        "av",
        "aient"
      ],
      [
        "av",
        "ez"
      ],
      [
        "cr",
        "ois"
      ],
      [
        "ap",
        "pro"
      ],
      [
        "ap",
        "pe"
      ],
      [
        "ab",
        "ord"
      ],
      [
        "co",
        "l"
      ],
      [
        "pet",
        "its"
      ],
      [
        "prés",
        "ent"
      ],
      [
        "seign",
        "eur"
      ],
      [
        "avent",
        "ure"
      ],
      [
        "f",
        "s"
      ],
      [
        "h",
        "er"
      ],
      [
        "l",
        "les"
      ],
      [
        "p",
        "ut"
      ],
      [
        "r",
        "ou"
      ],
      [
        "t",
        "h"
      ],
      [
        "è",
        "te"
      ],
      [
        "é",
        "ch"
      ],
      [
        "ai",
        "m"
      ],
      [
        "si",
        "eurs"
      ],
      [
        "pas",
        "se"
      ],
      [
        "cr",
        "ut"
      ],
      [
        "ouv",
        "r"
      ],
      [
        "ma",
        "ge"
      ],
      [
        "mais",
        "on"
      ],
      [
        "ti",
        "ent"
      ],
      [
        "dev",
        "ant"
      ],
      [
        "pet",
        "it"
      ],
      [
        "hab",
        "it"
      ],
      [
        "b",
        "les"
      ],
      [
        "b",
        "ut"
      ],
      [
        "m",
        "om"
      ],
      [
        "m",
        "ère"
      ],
      [
        "r",
        "o"
      ],
      [
        "œ",
        "u"
      ],
      [
        "au",
        "rait"
      ],
      [
        "te",
        "z"
      ],
      [
        "des",
        "sus"
      ],
      [
        "con",
        "se"
      ],
      [
        "..",
        "."
      ],
      [
        "fais",
        "ait"
      ],
      [
        "donn",
        "er"
      ],
      [
        "som",
        "me"
      ],
      [
        "honn",
        "eur"
      ],
      [
        "c",
        "au"
      ],
      [
        "e",
        "mb"
      ],
      [
        "l",
        "ors"
      ],
      [
        "o",
        "pe"
      ],
      [
        "p",
        "eur"
      ],
      [
        "s",
        "t"
      ],
      [
        "t",
        "ir"
      ],
      [
        "v",
        "is"
      ],
      [
        "v",
        "res"
      ],
      [
        "v",
        "int"
      ],
      [
        "v",
        "iens"
      ],
      [
        "é",
        "pou"
      ],
      [
        "en",
        "du"
      ],
      [
        "re",
        "tour"
      ],
      [
        "tr",
        "ou"
      ],
      [
        "cr",
        "i"
      ],
      [
        "di",
        "ff"
      ],
      [
        "dé",
        "f"
      ],
      [
        "ser",
        "ait"
      ],
      [
        "ap",
        "er"
      ],
      [
        "ment",
        "s"
      ],
      [
        "cher",
        "cher"
      ],
      [
        "dou",
        "x"
      ],
      [
        "nouv",
        "eau"
      ],
      [
        "b",
        "ête"
      ],
      [
        "d",
        "ra"
      ],
      [
        "j",
        "à"
      ],
      [
        "n",
        "ul"
      ],
      [
        "p",
        "in"
      ],
      [
        "s",
        "orte"
      ],
      [
        "t",
        "ort"
      ],
      [
        "se",
        "ule"
      ],
      [
        "ch",
        "es"
      ],
      [
        "ch",
        "iens"
      ],
      [
        "son",
        "ge"
      ],
      [
        "av",
        "is"
      ],
      [
        "al",
        "l"
      ],
      [
        "cr",
        "ain"
      ],
      [
        "vi",
        "eux"
      ],
      [
        "ser",
        "t"
      ],
      [
        "hom",
        "mes"
      ],
      [
        "ag",
        "ne"
      ],
      [
        "trouv",
        "a"
      ],
      [
        "ju",
        "ge"
      ],
      [
        "voi",
        "x"
      ],
      [
        "semb",
        "la"
      ],
      [
        "d",
        "ent"
      ],
      [
        "d",
        "am"
      ],
      [
        "h",
        "eur"
      ],
      [
        "h",
        "ist"
      ],
      [
        "n",
        "a"
      ],
      [
        "s",
        "se"
      ],
      [
        "è",
        "vre"
      ],
      [
        "en",
        "ne"
      ],
      [
        "te",
        "lle"
      ],
      [
        "tr",
        "ès"
      ],
      [
        "par",
        "mi"
      ],
      [
        "pas",
        "ser"
      ],
      [
        "am",
        "is"
      ],
      [
        "cr",
        "o"
      ],
      [
        "dé",
        "jà"
      ],
      [
        "pu",
        "bli"
      ],
      [
        "mar",
        "i"
      ],
      [
        "br",
        "uit"
      ],
      [
        "auc",
        "un"
      ],
      [
        "qua",
        "tre"
      ],
      [
        "trés",
        "or"
      ],
      [
        "g",
        "re"
      ],
      [
        "h",
        "ar"
      ],
      [
        "m",
        "ir"
      ],
      [
        "m",
        "ér"
      ],
      [
        "ai",
        "gle"
      ],
      [
        "qu",
        "et"
      ],
      [
        "ch",
        "asse"
      ],
      [
        "as",
        "s"
      ],
      [
        "end",
        "s"
      ],
      [
        "res",
        "te"
      ],
      [
        "quel",
        "qu"
      ],
      [
        "voy",
        "ant"
      ],
      [
        "trouv",
        "e"
      ],
      [
        "port",
        "er"
      ],
      [
        "grand",
        "s"
      ],
      [
        "pri",
        "x"
      ],
      [
        "cha",
        "que"
      ],
      [
        "premi",
        "er"
      ],
      [
        "dem",
        "eure"
      ],
      [
        "hist",
        "oire"
      ],
      [
        "a",
        "dieu"
      ],
      [
        "c",
        "l"
      ],
      [
        "f",
        "oi"
      ],
      [
        "l",
        "ent"
      ],
      [
        "m",
        "u"
      ],
      [
        "o",
        "eu"
      ],
      [
        "p",
        "ens"
      ],
      [
        "r",
        "is"
      ],
      [
        "r",
        "oit"
      ],
      [
        "re",
        "prit"
      ],
      [
        "ce",
        "au"
      ],
      [
        "tre",
        "s"
      ],
      [
        "des",
        "tin"
      ],
      [
        "al",
        "ler"
      ],
      [
        "pour",
        "quoi"
      ],
      [
        "dé",
        "li"
      ],
      [
        "pe",
        "in"
      ],
      [
        "gu",
        "erre"
      ],
      [
        "co",
        "eur"
      ],
      [
        "soin",
        "s"
      ],
      [
        "d",
        "ents"
      ],
      [
        "f",
        "ût"
      ],
      [
        "i",
        "que"
      ],
      [
        "m",
        "orte"
      ],
      [
        "p",
        "è"
      ],
      [
        "p",
        "ai"
      ],
      [
        "p",
        "ent"
      ],
      [
        "p",
        "ot"
      ],
      [
        "de",
        "man"
      ],
      [
        "ent",
        "ôt"
      ],
      [
        "is",
        "te"
      ],
      [
        "cr",
        "oit"
      ],
      [
        "end",
        "roit"
      ],
      [
        "ci",
        "eux"
      ]
    ]
  }
}