{
  "version": "1.0",
  "truncation": null,
  "padding": null,
  "added_tokens": [
    {
      "id": 0,
      "content": "[UNK]",
      "single_word": false,
      "lstrip": false,
      "rstrip": false,
      "normalized": false,
      "special": true
    },
    {
      "id": 1,
      "content": "<|titre|>",
      "single_word": false,
      "lstrip": false,
      "rstrip": false,
      "normalized": false,
      "special": true
    },
    {
      "id": 2,
      "content": "<|sep|>",
      "single_word": false,
      "lstrip": false,
      "rstrip": false,
      "normalized": false,
      "special": true
    }
  ],
  "normalizer": null,
  "pre_tokenizer": {
    "type": "ByteLevel",
    "add_prefix_space": true,
    "trim_offsets": true,
    "use_regex": true
  },
  "post_processor": null,
  "decoder": {
    "type": "ByteLevel",
    "add_prefix_space": true,
    "trim_offsets": true,
    "use_regex": true
  },
  "model": {
    "type": "BPE",
    "dropout": null,
    "unk_token": null,
    "continuing_subword_prefix": null,
    "end_of_word_suffix": null,
    "fuse_unk": false,
    "byte_fallback": false,
    "ignore_merges": false,
    "vocab": {
      "[UNK]": 0,
      "<|titre|>": 1,
      "<|sep|>": 2,
      "!": 3,
      "\"": 4,
      "#": 5,
      "'": 6,
      "(": 7,
      ")": 8,
      "*": 9,
      ",": 10,
      "-": 11,
      ".": 12,
      "0": 13,
      "1": 14,
      "2": 15,
      "3": 16,
      "4": 17,
      "5": 18,
      "6": 19,
      "7": 20,
      "8": 21,
      "9": 22,
      ":": 23,
      ";": 24,
      "<": 25,
      ">": 26,
      "?": 27,
      "[": 28,
      "]": 29,
      "a": 30,
      "b": 31,
      "c": 32,
      "d": 33,
      "e": 34,
      "f": 35,
      "g": 36,
      "h": 37,
      "i": 38,
      "j": 39,
      "k": 40,
      "l": 41,
      "m": 42,
      "n": 43,
      "o": 44,
      "p": 45,
      "q": 46,
      "r": 47,
      "s": 48,
      "t": 49,
      "u": 50,
      "v": 51,
      "w": 52,
      "x": 53,
      "y": 54,
      "z": 55,
      "|": 56,
      "¢": 57,
      "§": 58,
      "¨": 59,
      "©": 60,
      "ª": 61,
      "«": 62,
      "®": 63,
      "¯": 64,
      "°": 65,
      "´": 66,
      "¹": 67,
      "»": 68,
      "¼": 69,
      "Â": 70,
      "Ã": 71,
      "Å": 72,
      "â": 73,
      "Ċ": 74,
      "Ġ": 75,
      "Ģ": 76,
      "Ĵ": 77,
      "ĵ": 78,
      "ĺ": 79,
      "Ļ": 80,
      "ľ": 81,
      "ł": 82,
      "Ġl": 83,
      "Ġd": 84,
      "en": 85,
      "Ġp": 86,
      "Ġs": 87,
      "Ġc": 88,
      "ou": 89,
      "es": 90,
      "ai": 91,
      "re": 92,
      "on": 93,
      "Ã©": 94,
      "qu": 95,
      "Ġm": 96,
      "an": 97,
      "er": 98,
      "Ġa": 99,
      "Ġqu": 100,
      "Ġt": 101,
      "eu": 102,
      "it": 103,
      "et": 104,
      "Ġf": 105,
      "Ġv": 106,
      "il": 107,
      "Ġde": 108,
      "Ġn": 109,
      "un": 110,
      "ent": 111,
      "oi": 112,
      "Ġle": 113,
      "ar": 114,
      "Ġet": 115,
      "ait": 116,
      "le": 117,
      "our": 118,
      "Ġla": 119,
      "Ġb": 120,
      "au": 121,
      "or": 122,
      "Ġj": 123,
      "ant": 124,
      "in": 125,
      "Ġen": 126,
      "Ãł": 127,
      "is": 128,
      "Ġun": 129,
      "Ġr": 130,
      "Ġque": 131,
      "te": 132,
      "ous": 133,
      "se": 134,
      "Ġau": 135,
      "Ġles": 136,
      "om": 137,
      "Ġ;": 138,
      "Ġ:": 139,
      "ais": 140,
      "eur": 141,
      "Ġch": 142,
      "ĠÃł": 143,
      "Ġg": 144,
      "Ġil": 145,
      "tre": 146,
      "as": 147,
      "Ã¨": 148,
      "Ġpr": 149,
      "el": 150,
      "me": 151,
      "est": 152,
      "us": 153,
      "eux": 154,
      "ien": 155,
      "Ġson": 156,
      "<|": 157,
      "at": 158,
      "|>": 159,
      "ge": 160,
      "Ġpl": 161,
      "ch": 162,
      "Ġpar": 163,
      "Ġtr": 164,
      "Ġne": 165,
      "out": 166,
      "Ġce": 167,
      "Ãª": 168,
      "Ġse": 169,
      "Ã©t": 170,
      "ain": 171,
      "ans": 172,
      "Ġsu": 173,
      "ce": 174,
      "ir": 175,
      "Ġh": 176,
      "Ġje": 177,
      "Ġdes": 178,
      "al": 179,
      "Ġpour": 180,
      "Ġsa": 181,
      "Ġqui": 182,
      "em": 183,
      "end": 184,
      "ont": 185,
      "ort": 186,
      "Ġdu": 187,
      "Ġpas": 188,
      "tit": 189,
      "ui": 190,
      "oin": 191,
      "Ġre": 192,
      "Ġvous": 193,
      "ons": 194,
      "Ġ<|": 195,
      "titre": 196,
      "ois": 197,
      "ie": 198,
      "Ġ?": 199,
      "Ġvo": 200,
      "ut": 201,
      "onn": 202,
      "Ġtout": 203,
      "Ġdit": 204,
      "Ġcom": 205,
      "elle": 206,
      "..": 207,
      "ouv": 208,
      "and": 209,
      "Ġav": 210,
      "que": 211,
      "gn": 212,
      "Ã©s": 213,
      "Ġplus": 214,
      "Ã¢": 215,
      "pr": 216,
      "am": 217,
      "os": 218,
      "ab": 219,
      "Ã¨re": 220,
      "Ġest": 221,
      "Ġcr": 222,
      "ier": 223,
      "Ġsi": 224,
      "aire": 225,
      "de": 226,
      "Ġbien": 227,
      "Ġdi": 228,
      "Ġsur": 229,
      "Ġleur": 230,
      "Ġgr": 231,
      "les": 232,
      "age": 233,
      "Ġlui": 234,
      "Ġon": 235,
      "ez": 236,
      "im": 237,
      "ĠdÃ©": 238,
      "res": 239,
      "oup": 240,
      "eau": 241,
      "Ġcet": 242,
      "ff": 243,
      "Ġdans": 244,
      "Ġpeu": 245,
      "Ġfait": 246,
      "ĠÃ©t": 247,
      "Ã´": 248,
      "ens": 249,
      "Ġmais": 250,
      "av": 251,
      "Ġma": 252,
      "Ġquel": 253,
      "iv": 254,
      "aient": 255,
      "aut": 256,
      "Ã©r": 257,
      "emp": 258,
      "ours": 259,
      "Ġune": 260,
      "ci": 261,
      "Ġnous": 262,
      "Ã®": 263,
      "si": 264,
      "Ġces": 265,
      "Ã©e": 266,
      "ard": 267,
      "Ġli": 268,
      "Ġmon": 269,
      "ĠÃ©": 270,
      "Ġses": 271,
      "oir": 272,
      "ment": 273,
      "Ġcon": 274,
      "Ġe": 275,
      "sep": 276,
      "ot": 277,
      "uis": 278,
      "ap": 279,
      "Ġaux": 280,
      "oint": 281,
      "une": 282,
      "Ġo": 283,
      "ure": 284,
      "Ã»": 285,
      "ac": 286,
      "oit": 287,
      "op": 288,
      "Ġpoint": 289,
      "Ġsans": 290,
      "ers": 291,
      "ur": 292,
      "Ã´t": 293,
      "Ġme": 294,
      "ert": 295,
      "Ġcette": 296,
      "âĢ": 297,
      "âĢĻ": 298,
      "Ġtou": 299,
      "Ġtous": 300,
      "Ġ!": 301,
      "eurs": 302,
      "ol": 303,
      "Ġin": 304,
      "ille": 305,
      "ang": 306,
      "ne": 307,
      "ec": 308,
      "Ã¨s": 309,
      "Ġal": 310,
      "Ġser": 311,
      "Ġdeux": 312,
      "Ġam": 313,
      "Ãªme": 314,
      "Ġfut": 315,
      "omme": 316,
      "ient": 317,
      "Ġdis": 318,
      "Ġfr": 319,
      "ine": 320,
      "autre": 321,
      "Ġquelque": 322,
      "Ġmal": 323,
      "Ġar": 324,
      "ĠrÃ©": 325,
      "Ġent": 326,
      "Ġpuis": 327,
      "che": 328,
      "aux": 329,
      "Ġcomme": 330,
      "....": 331,
      "Ġgens": 332,
      "tr": 333,
      "Ġcour": 334,
      "Ġmar": 335,
      "ill": 336,
      "Ã»t": 337,
      "oy": 338,
      "Ġren": 339,
      "able": 340,
      "ul": 341,
      "Ġsont": 342,
      "Ġcel": 343,
      "Ġy": 344,
      "Ġfort": 345,
      "bl": 346,
      "ue": 347,
      "Ġfaire": 348,
      "ag": 349,
      "Ġelle": 350,
      "Ġcar": 351,
      "Ġpro": 352,
      "Ġno": 353,
      "ire": 354,
      "Ãªtre": 355,
      "uit": 356,
      "ieux": 357,
      "Ġtant": 358,
      "Ġou": 359,
      "Ġper": 360,
      "Ġaus": 361,
      "Ãªte": 362,
      "Ġap": 363,
      "orte": 364,
      "Ġenf": 365,
      "Ġils": 366,
      "ose": 367,
      "Ġtemp": 368,
      "ils": 369,
      "Ġbeau": 370,
      "Ġavec": 371,
      "Ã§": 372,
      "ance": 373,
      "ants": 374,
      "ond": 375,
      "Ġpart": 376,
      "oul": 377,
      "Ã®tre": 378,
      "Ãªt": 379,
      "onne": 380,
      "auv": 381,
      "endre": 382,
      "Ġmes": 383,
      "Ġmain": 384,
      "eut": 385,
      "Ġcomp": 386,
      "dr": 387,
      "Ġenc": 388,
      "Ġbr": 389,
      "Ġnotre": 390,
      "agn": 391,
      "ail": 392,
      "Ġtrouv": 393,
      "ĠÃ©tait": 394,
      "Ġas": 395,
      "mes": 396,
      "Ġfit": 397,
      "eure": 398,
      "Ġrien": 399,
      "Ġex": 400,
      "cr": 401,
      "Ġes": 402,
      "Ġcont": 403,
      "Ġgrand": 404,
      "iÃ¨re": 405,
      "Ġquand": 406,
      "omb": 407,
      "oins": 408,
      "Ġloup": 409,
      "erre": 410,
      "Ġdev": 411,
      "Ġni": 412,
      "ion": 413,
      "ass": 414,
      "Ġpeut": 415,
      "Ġmoi": 416,
      "ents": 417,
      "Ã¢t": 418,
      "um": 419,
      "Ġfaut": 420,
      "Ġbon": 421,
      "Ġju": 422,
      "Ġvoy": 423,
      "Ġpa": 424,
      "ĠmÃªme": 425,
      "ins": 426,
      "ord": 427,
      "Ġtemps": 428,
      "Ġall": 429,
      "cc": 430,
      "ess": 431,
      "Ġvie": 432,
      "Ġdem": 433,
      "Ġavait": 434,
      "ger": 435,
      "ign": 436,
      "ĠlÃł": 437,
      "Ġco": 438,
      "Ã©tait": 439,
      "prit": 440,
      "onc": 441,
      "Ġjour": 442,
      "cher": 443,
      "vous": 444,
      "oire": 445,
      "Ġautre": 446,
      "app": 447,
      "anim": 448,
      "omp": 449,
      "Ġentre": 450,
      "ble": 451,
      "Ġsort": 452,
      "int": 453,
      "sez": 454,
      "Ġpass": 455,
      "ĠmaÃ®tre": 456,
      "Ġmet": 457,
      "Ġnon": 458,
      "Ġlais": 459,
      "Ġcor": 460,
      "iens": 461,
      "Ġtu": 462,
      "jours": 463,
      "mp": 464,
      "ite": 465,
      "Ġfais": 466,
      "Ġtoujours": 467,
      "Ġseu": 468,
      "itÃ©": 469,
      "ats": 470,
      "Ġcert": 471,
      "Ġgu": 472,
      "Ġvotre": 473,
      "ic": 474,
      "ÂĴ": 475,
      "Ġchose": 476,
      "ainsi": 477,
      "Ġleurs": 478,
      "Ġcertain": 479,
      "Ġdonc": 480,
      "Ġcoup": 481,
      "Ã©c": 482,
      "Ġquoi": 483,
      "Ġven": 484,
      "Ġaut": 485,
      "rait": 486,
      "ette": 487,
      "Ġnos": 488,
      "Ġai": 489,
      "Ġdou": 490,
      "Ġpe": 491,
      "ors": 492,
      "Ġrenard": 493,
      "ique": 494,
      "rent": 495,
      "Ġvoir": 496,
      "Ġchac": 497,
      "all": 498,
      "Ġdieux": 499,
      "Ġtoute": 500,
      "Ġainsi": 501,
      "Ġfem": 502,
      "Ġrais": 503,
      "Ã¹": 504,
      "Ġchez": 505,
      "Ġim": 506,
      "Ġat": 507,
      "Ġvoul": 508,
      "Ġaussi": 509,
      "Ġdire": 510,
      "Ġchacun": 511,
      "Ġdont": 512,
      "Ġsour": 513,
      "ad": 514,
      "ore": 515,
      "Åĵ": 516,
      "ong": 517,
      "ĠmÃ©": 518,
      "iter": 519,
      "Ġfor": 520,
      "Ġcelui": 521,
      "Ã©p": 522,
      "Ġman": 523,
      "Ġvois": 524,
      "Ġtrop": 525,
      "endant": 526,
      "Ġcomm": 527,
      "ve": 528,
      "Ġmoins": 529,
      "ence": 530,
      "Ġfl": 531,
      "ux": 532,
      "Ġdonn": 533,
      "Ġmort": 534,
      "Ġmieux": 535,
      "illes": 536,
      "yant": 537,
      "Ġpet": 538,
      "Ġport": 539,
      "Ġvoi": 540,
      "ig": 541,
      "jet": 542,
      "Ã©l": 543,
      "Ġtel": 544,
      "Ġfont": 545,
      "ist": 546,
      "Ġenfin": 547,
      "Ġencor": 548,
      "Ġ(": 549,
      "Ġanim": 550,
      "esse": 551,
      "Ġjus": 552,
      "Ġcher": 553,
      "aine": 554,
      "Ġhomme": 555,
      "id": 556,
      "ĠÃ¢": 557,
      "Ġsouv": 558,
      "Ġmot": 559,
      "Ġva": 560,
      "Ġjam": 561,
      "Ã®t": 562,
      "Ġlion": 563,
      "Ġsou": 564,
      "Ġvient": 565,
      "art": 566,
      "Ġchat": 567,
      "att": 568,
      "og": 569,
      "rai": 570,
      "Ġlong": 571,
      "Ġfer": 572,
      "Ġroi": 573,
      "Ġsem": 574,
      "rem": 575,
      "Ġrep": 576,
      "Ġret": 577,
      "Ġvoil": 578,
      "Ġfemme": 579,
      "dre": 580,
      "moi": 581,
      "Ġemp": 582,
      "ques": 583,
      "ile": 584,
      "iers": 585,
      "ĠvoilÃł": 586,
      "Ġpauv": 587,
      "Ġfin": 588,
      "Ġchar": 589,
      "asse": 590,
      "ement": 591,
      "ĠoÃ¹": 592,
      "Ġcela": 593,
      "Ġjamais": 594,
      "la": 595,
      "ĠdÃ©p": 596,
      "Ġarr": 597,
      "Ġpetit": 598,
      "homme": 599,
      "Ġprin": 600,
      "irent": 601,
      "Ġaff": 602,
      "Ġte": 603,
      "itÃ´t": 604,
      "Ġvit": 605,
      "Ġrat": 606,
      "Ġrend": 607,
      "Ã¨rent": 608,
      "Ġpris": 609,
      "Ġvol": 610,
      "Ġjup": 611,
      "ra": 612,
      "Ġeut": 613,
      "Ġsous": 614,
      "Ã©n": 615,
      "ole": 616,
      "Ġcons": 617,
      "amp": 618,
      "Ġcontre": 619,
      "Ġserv": 620,
      "Ġseul": 621,
      "Ġtour": 622,
      "Ġsuis": 623,
      "Ġsav": 624,
      "ĠrÃ©p": 625,
      "be": 626,
      "Ġpie": 627,
      "Ġtomb": 628,
      "oie": 629,
      "Ġvos": 630,
      "prÃ¨s": 631,
      "Ġdieu": 632,
      "anger": 633,
      "Ġraison": 634,
      "je": 635,
      "ĠÃªtre": 636,
      "ret": 637,
      "ĠtÃªte": 638,
      "Ġnouv": 639,
      "Ġprop": 640,
      "Ġtrois": 641,
      "Ġlieu": 642,
      "ple": 643,
      "Ġ\"": 644,
      "Ġsoit": 645,
      "anc": 646,
      "Ġacc": 647,
      "Ġviv": 648,
      "oise": 649,
      "ains": 650,
      "Ġapp": 651,
      "Ġassez": 652,
      "ace": 653,
      "ds": 654,
      "ice": 655,
      "ici": 656,
      "Ġsin": 657,
      "Ġmis": 658,
      "ĠdÃ©f": 659,
      "ale": 660,
      "sitÃ´t": 661,
      "Ġbout": 662,
      "Ġprend": 663,
      "........": 664,
      "Ġmarch": 665,
      "aille": 666,
      "Ġjupiter": 667,
      "Ġprem": 668,
      "Ġcl": 669,
      "Ġcent": 670,
      "Ġfable": 671,
      "Ġjeu": 672,
      "Ġplais": 673,
      "Ġtrait": 674,
      "Ġsage": 675,
      "ĠaussitÃ´t": 676,
      "Ġpeine": 677,
      "Ã©m": 678,
      "Ġatt": 679,
      "Ġdr": 680,
      "Ġsais": 681,
      "Ã©g": 682,
      "Ã¨res": 683,
      "Ġmalh": 684,
      "Ġprof": 685,
      "oqu": 686,
      "Ġceux": 687,
      "Ġad": 688,
      "Ġvers": 689,
      "ante": 690,
      "ĠeÃ»t": 691,
      "Ġmaint": 692,
      "con": 693,
      "iÃ©": 694,
      "Ġayant": 695,
      "aud": 696,
      "Ġche": 697,
      "Ġchien": 698,
      "Ġrev": 699,
      "Ġlaiss": 700,
      "ame": 701,
      "bre": 702,
      "fois": 703,
      "gr": 704,
      "gent": 705,
      "use": 706,
      "enf": 707,
      "Ġple": 708,
      "Ġpouv": 709,
      "Ã©d": 710,
      "iss": 711,
      "Ġhum": 712,
      "amour": 713,
      "ĠÃ©p": 714,
      "Ġcompagn": 715,
      "Ġsouvent": 716,
      "cl": 717,
      "ler": 718,
      "Ġph": 719,
      "Ġnul": 720,
      "omm": 721,
      "ommes": 722,
      "ature": 723,
      "ĠgrÃ¢": 724,
      "Ġmonde": 725,
      "ib": 726,
      "ter": 727,
      "Ġont": 728,
      "Ġsot": 729,
      "oux": 730,
      "Ġfils": 731,
      "Ġveut": 732,
      "arr": 733,
      "Ġreg": 734,
      "Ġami": 735,
      "if": 736,
      "Ġor": 737,
      "Ġsent": 738,
      "ables": 739,
      "Ġcourt": 740,
      "Ġpauvre": 741,
      "tant": 742,
      "ys": 743,
      "air": 744,
      "onde": 745,
      "ern": 746,
      "ĠprÃ©s": 747,
      "Ġpeuple": 748,
      "Ġperd": 749,
      "Ġappr": 750,
      "Ġesprit": 751,
      "ade": 752,
      "aign": 753,
      "ĠaprÃ¨s": 754,
      "Ġfour": 755,
      "lez": 756,
      "Ġjours": 757,
      "Ġenv": 758,
      "Ġyeux": 759,
      "vre": 760,
      "ĠdÃ©s": 761,
      "Ġpens": 762,
      "Ġmont": 763,
      "Ġbonne": 764,
      "ĠprÃ©": 765,
      "Ġsec": 766,
      "Ãªtes": 767,
      "Ġpare": 768,
      "ex": 769,
      "ix": 770,
      "mÃªme": 771,
      "oc": 772,
      "up": 773,
      "ĠpÃ¨re": 774,
      "Ġpers": 775,
      "Ġcer": 776,
      "este": 777,
      "Ġbl": 778,
      "Ġber": 779,
      "Ġbelle": 780,
      "Ġgl": 781,
      "Ġvoit": 782,
      "ouvr": 783,
      "Ġsembl": 784,
      "Ġarriv": 785,
      "jour": 786,
      "Ġsoi": 787,
      "Ġquit": 788,
      "Ġveux": 789,
      "ente": 790,
      "Ġhaut": 791,
      "Ġtoutes": 792,
      "Ġsouris": 793,
      "are": 794,
      "ces": 795,
      "mi": 796,
      "pendant": 797,
      "Ġloin": 798,
      "Ġsoup": 799,
      "Ġconn": 800,
      "Ġmer": 801,
      "Ġton": 802,
      "ets": 803,
      "arde": 804,
      "Ġbois": 805,
      "aur": 806,
      "Ġtrav": 807,
      "Ġcependant": 808,
      "Ġsuiv": 809,
      "Ġdiv": 810,
      "Ġdisait": 811,
      "Ġfortune": 812,
      "Ġencore": 813,
      "Ġpieds": 814,
      "Ġmarchand": 815,
      "Ġplaisir": 816,
      "Ġchev": 817,
      "iel": 818,
      "ps": 819,
      "tes": 820,
      "Ġlog": 821,
      "Ġsait": 822,
      "Ġcelle": 823,
      "Ġfois": 824,
      "Ġfond": 825,
      "Ġbel": 826,
      "iendr": 827,
      "gne": 828,
      "Ġjusqu": 829,
      "coup": 830,
      "gle": 831,
      "lÃł": 832,
      "od": 833,
      "Ġeux": 834,
      "Ġmit": 835,
      "Ġmour": 836,
      "orm": 837,
      "Ġhab": 838,
      "Ġrec": 839,
      "Ã©rit": 840,
      "ages": 841,
      "Ġbeaucoup": 842,
      "Ġcorps": 843,
      "Ġimp": 844,
      "Ġprince": 845,
      "Ġsinge": 846,
      "ob": 847,
      "Ġcol": 848,
      "Ġterre": 849,
      "Ġsujet": 850,
      "ĠÃ©c": 851,
      "Ġenfants": 852,
      "Ġdemand": 853,
      "Ġanimaux": 854,
      "Ġmots": 855,
      "ĠgrÃ¢ce": 856,
      "ieu": 857,
      "ige": 858,
      "tu": 859,
      "Ġpu": 860,
      "Ġpos": 861,
      "Ġcas": 862,
      "Ġmoin": 863,
      "ange": 864,
      "Ġfa": 865,
      "Ġfou": 866,
      "Ġfau": 867,
      "Ġvain": 868,
      "Ġvrai": 869,
      "ĠtrÃ©s": 870,
      "emb": 871,
      "Ġgros": 872,
      "ĠÃ©tant": 873,
      "avait": 874,
      "Ġvoici": 875,
      "Ġdroit": 876,
      "Ġplein": 877,
      "iqu": 878,
      "enir": 879,
      "Ġca": 880,
      "Ġmor": 881,
      "Ġnature": 882,
      "ise": 883,
      "ĠprÃ©t": 884,
      "Ġplain": 885,
      "eaux": 886,
      "ope": 887,
      "eureux": 888,
      "Åĵur": 889,
      "Ġforce": 890,
      "Ġaffaire": 891,
      "oiseau": 892,
      "Ġlogis": 893,
      "aÃ®t": 894,
      "ions": 895,
      "Ġlou": 896,
      "Ġdonne": 897,
      "ense": 898,
      "Ġporte": 899,
      "Ġsauv": 900,
      "Ġmille": 901,
      "Ġvou": 902,
      "aiss": 903,
      "Ġprom": 904,
      "Ġprendre": 905,
      "estin": 906,
      "chÃ©": 907,
      "Ġtroup": 908,
      "Ġtromp": 909,
      "iez": 910,
      "imp": 911,
      "ĠdÃ©l": 912,
      "Ġlieux": 913,
      "Ġob": 914,
      "Ġass": 915,
      "tÃ©": 916,
      "Ġans": 917,
      "ĠdÃ©t": 918,
      "Ġciel": 919,
      "rer": 920,
      "Ġmou": 921,
      "Ġbou": 922,
      "Ġgal": 923,
      "Ġcroy": 924,
      "Ġquelques": 925,
      "Ã®n": 926,
      "aill": 927,
      "ombre": 928,
      "Ġautant": 929,
      "Ġvoisin": 930,
      ";;": 931,
      "ph": 932,
      "Ġ.": 933,
      "ĠdÃ¨s": 934,
      "Ġsens": 935,
      "Ġmout": 936,
      "Ġmons": 937,
      "enture": 938,
      "Ġchant": 939,
      "Ġchass": 940,
      "Ġchamp": 941,
      "Ã¨me": 942,
      "Ġpren": 943,
      "Ġplut": 944,
      "Ġseign": 945,
      "Ġrem": 946,
      "onneur": 947,
      "Ġcomb": 948,
      "Ġcomment": 949,
      "Ã¢ne": 950,
      "Ġcrois": 951,
      "Ã§on": 952,
      "Ġpetits": 953,
      "Ġjeune": 954,
      "Ġphil": 955,
      "aff": 956,
      "lle": 957,
      "ĠÃ´": 958,
      "Ġcau": 959,
      "aim": 960,
      "Ġab": 961,
      "Ġqua": 962,
      "Ġver": 963,
      "Ġbour": 964,
      "Ġjou": 965,
      "Ã¨te": 966,
      "Ġceci": 967,
      "Ġavoir": 968,
      "Ġmaison": 969,
      "Ġconf": 970,
      "Ġalors": 971,
      "Ġcontr": 972,
      "Ġcontent": 973,
      "Ġmettre": 974,
      "Ġlaisse": 975,
      "Ġanimal": 976,
      "Ġsouff": 977,
      "cun": 978,
      "Ġ........": 979,
      "Ġsoin": 980,
      "rez": 981,
      "Ġmen": 982,
      "Ġmom": 983,
      "ĠmÃ¨re": 984,
      "Ġbre": 985,
      "Ġchem": 986,
      "ation": 987,
      "...": 988,
      "abord": 989,
      "Ġsire": 990,
      "ĠdÃ©j": 991,
      "resse": 992,
      "Ġmessi": 993,
      "Ġfaisait": 994,
      "Åĵu": 995,
      "ct": 996,
      "fait": 997,
      "nes": 998,
      "pp": 999,
      "vent": 1000,
      "Ġici": 1001,
      "Ġlors": 1002,
      "ĠsÃ©": 1003,
      "Ġsomme": 1004,
      "Ġta": 1005,
      "temp": 1006,
      "Ġtrou": 1007,
      "ends": 1008,
      "Ġcru": 1009,
      "Ġcrut": 1010,
      "Ġconse": 1011,
      "Ġoff": 1012,
      "ĠrÃ©c": 1013,
      "Ġesp": 1014,
      "Ġdoux": 1015,
      "Ġchercher": 1016,
      "Ġretour": 1017,
      "Ġnouveau": 1018,
      "ay": 1019,
      "aque": 1020,
      "fs": 1021,
      "Ġpat": 1022,
      "Ġsorte": 1023,
      "Ġcou": 1024,
      "esprit": 1025,
      "Ġmat": 1026,
      "ann": 1027,
      "Ġtoi": 1028,
      "Ġtort": 1029,
      "Ġtire": 1030,
      "Ġvieux": 1031,
      "Ġnom": 1032,
      "lement": 1033,
      "ĠbÃªte": 1034,
      "Ġchiens": 1035,
      "ĠprÃ¨s": 1036,
      "Ġnez": 1037,
      "ĠÃ©l": 1038,
      "Ġautres": 1039,
      "Ã©ph": 1040,
      "Ġvoix": 1041,
      "uy": 1042,
      "Ġdern": 1043,
      "Ġsc": 1044,
      "Ġfall": 1045,
      "argent": 1046,
      "isse": 1047,
      "Ã¨vre": 1048,
      "elles": 1049,
      "ches": 1050,
      "Ġparmi": 1051,
      "ĠtrÃ¨s": 1052,
      "Ġhommes": 1053,
      "Ġdiff": 1054,
      "ĠÃ©ch": 1055,
      "Ġcond": 1056,
      "Ġeff": 1057,
      "appr": 1058,
      "Ġserait": 1059,
      "Ġpuiss": 1060,
      "Ġmari": 1061,
      "Ġbruit": 1062,
      "agne": 1063,
      "Ġtrouva": 1064,
      "Ġdevant": 1065,
      "Ġjuge": 1066,
      "Ġdonner": 1067,
      "Ġberger": 1068,
      "ĠtrÃ©sor": 1069,
      "Ġquatre": 1070,
      "ĠdÃ©jÃł": 1071,
      "nem": 1072,
      "Ġdame": 1073,
      "Ġpeur": 1074,
      "Ġmeu": 1075,
      "Ġquant": 1076,
      "Ġvin": 1077,
      "Ġnuit": 1078,
      "Ġreste": 1079,
      "tez": 1080,
      "Ġchaque": 1081,
      "Ġprit": 1082,
      "Ġprix": 1083,
      "Ġpasse": 1084,
      "Ġrepr": 1085,
      "Ġquelqu": 1086,
      "Ġconv": 1087,
      "Ġdisc": 1088,
      "Ġgrands": 1089,
      "Ġallait": 1090,
      "essus": 1091,
      "Ġdemeure": 1092,
      "Ġpasser": 1093,
      "istoire": 1094,
      "Ġpremier": 1095,
      "Ġseigneur": 1096,
      "ieur": 1097,
      "nous": 1098,
      "raient": 1099,
      "Ġ,": 1100,
      "Ġliv": 1101,
      "Ġso": 1102,
      "Ġsel": 1103,
      "Ġsoins": 1104,
      "quoi": 1105,
      "erm": 1106,
      "Ġten": 1107,
      "Ġfol": 1108,
      "Ġbes": 1109,
      "ĠbÃ¢t": 1110,
      "ĠrÃ©s": 1111,
      "Ġsonge": 1112,
      "aint": 1113,
      "ĠhÃ©r": 1114,
      "Ġpourquoi": 1115,
      "Ġreprit": 1116,
      "Ġavant": 1117,
      "ĠÃ©tr": 1118,
      "autres": 1119,
      "Ġins": 1120,
      "Ġamis": 1121,
      "Ġart": 1122,
      "Ġcoeur": 1123,
      "Ġguerre": 1124,
      "Ġcommun": 1125,
      "Ġadieu": 1126,
      "Ġhabit": 1127,
      "fin": 1128,
      "ud": 1129,
      "Ġdestin": 1130,
      "Ġpai": 1131,
      "Ġpendant": 1132,
      "Ã©es": 1133,
      "err": 1134,
      "erbe": 1135,
      "Ġtelle": 1136,
      "ĠfÃ»t": 1137,
      "Ġbient": 1138,
      "iste": 1139,
      "Ġrom": 1140,
      "Ġriv": 1141,
      "Ġcroit": 1142,
      "ĠÃ©tÃ©": 1143,
      "avant": 1144,
      "Ġtrouve": 1145,
      "crit": 1146,
      "Ġempl": 1147,
      "Ġcheval": 1148,
      "Ġmessieurs": 1149,
      "ĠbientÃ´t": 1150,
      "dessus": 1151,
      "nier": 1152,
      "Ã¯": 1153,
      "Ġlang": 1154,
      "Ġsole": 1155,
      "Ġcouv": 1156,
      "aigle": 1157,
      "Ã©ment": 1158,
      "Ġmanger": 1159,
      "ane": 1160,
      "Ġtes": 1161,
      "Ġfoi": 1162,
      "Ġvu": 1163,
      "Ġvent": 1164,
      "Ġbord": 1165,
      "Ã¨le": 1166,
      "endu": 1167,
      "uire": 1168,
      "Ġremp": 1169,
      "ĠcrÃ©": 1170,
      "ĠÃ©taient": 1171,
      "emple": 1172,
      "acc": 1173,
      "Ġinc": 1174,
      "oyen": 1175,
      "erreur": 1176,
      "Ġvoyant": 1177,
      "Ġvoyez": 1178,
      "Ġpein": 1179,
      "Ġmoment": 1180,
      "Ġsoleil": 1181,
      "eÃ»t": 1182,
      "oÃ»t": 1183,
      "Ġdorm": 1184,
      "env": 1185,
      "Ġpot": 1186,
      "esp": 1187,
      "reux": 1188,
      "itiÃ©": 1189,
      "Ġfille": 1190,
      "Ġaurait": 1191,
      "ateur": 1192,
      "Ġtra": 1193,
      "Ġpourtant": 1194,
      "ivers": 1195,
      "Ġmeill": 1196,
      "Ġind": 1197,
      "ĠtantÃ´t": 1198,
      "droit": 1199,
      "Ġtrouver": 1200,
      "Ġextr": 1201,
      "Ġpay": 1202,
      "animal": 1203,
      "Ġseulement": 1204,
      "Ġcherch": 1205,
      "ĠÃ¢me": 1206,
      "contre": 1207,
      "Ġhumains": 1208,
      "Ġregard": 1209,
      "Ġcause": 1210,
      "Ġchemin": 1211,
      "Ġselon": 1212,
      "cis": 1213,
      "ide": 1214,
      "rs": 1215,
      "ser": 1216,
      "Ġouvr": 1217,
      "Ġlar": 1218,
      "Ġdoit": 1219,
      "Ġput": 1220,
      "Ġpeau": 1221,
      "Ġsal": 1222,
      "Ġsert": 1223,
      "aise": 1224,
      "aires": 1225,
      "Ġvont": 1226,
      "Ġgarde": 1227,
      "ĠhÃ©l": 1228,
      "pris": 1229,
      "ĠÃ©g": 1230,
      "Ġserp": 1231,
      "ager": 1232,
      "Ãªts": 1233,
      "Ġmainte": 1234,
      "Ġexp": 1235,
      "Ġpays": 1236,
      "Ġvieill": 1237,
      "Ġcoups": 1238,
      "Ġvoulut": 1239,
      "grÃ©": 1240,
      "Ġesprits": 1241,
      "Ġcerf": 1242,
      "Ġposs": 1243,
      "Ġmonsieur": 1244,
      "Ġ............": 1245,
      "temps": 1246,
      "Ġrempl": 1247,
      "br": 1248,
      "honneur": 1249,
      "histoire": 1250,
      "ia": 1251,
      "ls": 1252,
      "ner": 1253,
      "nent": 1254,
      "oles": 1255,
      "ule": 1256,
      "ĠsÃ»": 1257,
      "Ġsol": 1258,
      "ĠmÃ©t": 1259,
      "Ġac": 1260,
      "Ġag": 1261,
      "Ġtir": 1262,
      "euse": 1263,
      "Ġval": 1264,
      "Ġvaut": 1265,
      "Ġvint": 1266,
      "Ġri": 1267,
      "Ġrois": 1268,
      "Ġrats": 1269,
      "Ġaucun": 1270,
      "Ġsuff": 1271,
      "ceau": 1272,
      "oiss": 1273,
      "Ġbiens": 1274,
      "Ġgren": 1275,
      "iment": 1276,
      "Ġquelle": 1277,
      "Ġsera": 1278,
      "Ġprov": 1279,
      "Ġpartout": 1280,
      "Ġautrefois": 1281,
      "Ġsortir": 1282,
      "Ġvenir": 1283,
      "Ġservir": 1284,
      "Ġpropos": 1285,
      "Ġpersonn": 1286,
      "Ġdivers": 1287,
      "affaire": 1288,
      "Ġdiscours": 1289,
      "Ġpaix": 1290,
      "avantage": 1291,
      "cs": 1292,
      "och": 1293,
      "ver": 1294,
      "Ġus": 1295,
      "Ġdents": 1296,
      "Ġcamp": 1297,
      "Ġment": 1298,
      "Ġmauv": 1299,
      "erÃ§": 1300,
      "Ġqueu": 1301,
      "Ġth": 1302,
      "ĠtÃ©m": 1303,
      "Ġfav": 1304,
      "Ġveu": 1305,
      "ĠnÃ©c": 1306,
      "univers": 1307,
      "artit": 1308,
      "Ġlas": 1309,
      "Ġjard": 1310,
      "Ġense": 1311,
      "Ã¨de": 1312,
      "Ġparl": 1313,
      "Ã´te": 1314,
      "urent": 1315,
      "trap": 1316,
      "Ġrencontre": 1317,
      "Ġmains": 1318,
      "ignor": 1319,
      "Ġcoq": 1320,
      "Ġporter": 1321,
      "Ġfontaine": 1322,
      "Ġrepartit": 1323,
      "Ġmalheureux": 1324,
      "ĠdÃ©lic": 1325,
      "ĠplutÃ´t": 1326,
      "ĠsÃ©jour": 1327,
      "ĠrÃ©cit": 1328,
      "ĠextrÃªme": 1329,
      "ĠhÃ©las": 1330,
      "Ġvieillard": 1331,
      "Ġqueue": 1332,
      "ĠnÃ©cess": 1333,
      "),": 1334,
      "ate": 1335,
      "gt": 1336,
      "iÃ¨res": 1337,
      "lus": 1338,
      "th": 1339,
      "Ġdavantage": 1340,
      "Ġsang": 1341,
      "Ġsommes": 1342,
      "Ġcours": 1343,
      "Ġmil": 1344,
      "ĠtÃ¢": 1345,
      "eus": 1346,
      "ourd": 1347,
      "Ġrendre": 1348,
      "Ġrapp": 1349,
      "tement": 1350,
      "Ġgre": 1351,
      "Ã¨ne": 1352,
      "Ġproie": 1353,
      "ienne": 1354,
      "geance": 1355,
      "Ġhas": 1356,
      "Ġretr": 1357,
      "Ġavaient": 1358,
      "Ġconte": 1359,
      "illage": 1360,
      "oyer": 1361,
      "Ġvoyage": 1362,
      "Ġdemi": 1363,
      "ĠguÃ¨re": 1364,
      "Ġaim": 1365,
      "ĠÃ¢ne": 1366,
      "Ġpropre": 1367,
      "Ġmalheur": 1368,
      "Ġpersonne": 1369,
      "aurais": 1370,
      ".\"": 1371,
      "ayant": 1372,
      "hait": 1373,
      "ime": 1374,
      "oeu": 1375,
      "oche": 1376,
      "rais": 1377,
      "rir": 1378,
      "tÃ©r": 1379,
      "ym": 1380,
      "Ġemb": 1381,
      "Ġsau": 1382,
      "quer": 1383,
      "Ġmir": 1384,
      "Ġmaud": 1385,
      "Ġah": 1386,
      "Ġafin": 1387,
      "Ġtal": 1388,
      "Ġtard": 1389,
      "Ġfam": 1390,
      "Ġfirent": 1391,
      "Ġvais": 1392,
      "Ġviendr": 1393,
      "Ġnour": 1394,
      "Ġlap": 1395,
      "inaire": 1396,
      "Ġennem": 1397,
      "Ġendroit": 1398,
      "Ġquere": 1399,
      "Ġgagn": 1400,
      "ĠgoÃ»t": 1401,
      "Ġpres": 1402,
      "Ġparler": 1403,
      "Ġsucc": 1404,
      "irait": 1405,
      "Ġhar": 1406,
      "Ġdesc": 1407,
      "Ġsag": 1408,
      "endait": 1409,
      "ande": 1410,
      "Ġavis": 1411,
      "Ġaventure": 1412,
      "Ġcrier": 1413,
      "Ġmad": 1414,
      "Ġmontre": 1415,
      "ĠÃ©crit": 1416,
      "Ġdisp": 1417,
      "Ġquelquefois": 1418,
      "ĠpassÃ©": 1419,
      "Ġpassant": 1420,
      "Ġmets": 1421,
      "mpe": 1422,
      "Ġvoulait": 1423,
      "ĠmaniÃ¨re": 1424,
      "Ġtels": 1425,
      "Ġsouhait": 1426,
      "Ġaccour": 1427,
      "Ġtraits": 1428,
      "Ġpubl": 1429,
      "Ġobjet": 1430,
      "Ġmouton": 1431,
      "Ġbesoin": 1432,
      "Ġhasard": 1433,
      "ach": 1434,
      "aÃ®tre": 1435,
      "cÃ¨s": 1436,
      "duit": 1437,
      "hui": 1438,
      "hum": 1439,
      "jus": 1440,
      "oque": 1441,
      "oÃ¹": 1442,
      "ues": 1443,
      "ude": 1444,
      "vant": 1445,
      "Ġos": 1446,
      "ĠpÃ©r": 1447,
      "Ġst": 1448,
      "Ġsat": 1449,
      "Ġcit": 1450,
      "onge": 1451,
      "quet": 1452,
      "era": 1453,
      "Ġtours": 1454,
      "Ġville": 1455,
      "Ġviens": 1456,
      "oign": 1457,
      "Ġbons": 1458,
      "Ġjet": 1459,
      "Ġgent": 1460,
      "Ġgard": 1461,
      "Ġtriste": 1462,
      "outer": 1463,
      "Ã©tant": 1464,
      "ira": 1465,
      "Ã¢te": 1466,
      "Ġcraign": 1467,
      "Ġsimp": 1468,
      "ĠdÃ©ch": 1469,
      "ĠliÃ¨vre": 1470,
      "Ġmonar": 1471,
      "Ġoh": 1472,
      "Ġore": 1473,
      "Ġcourr": 1474,
      "Ġbeaux": 1475,
      "Ġbras": 1476,
      "Ġloups": 1477,
      "ordinaire": 1478,
      "Ġalla": 1479,
      "Ġvoleurs": 1480,
      "Ġvivre": 1481,
      "Ġpouvait": 1482,
      "ĠprÃ©v": 1483,
      "Ġgloire": 1484,
      "jourd": 1485,
      "Ġmourir": 1486,
      "Åĵurs": 1487,
      "Ġvoulez": 1488,
      "Ã©phant": 1489,
      "Ġmeunier": 1490,
      "Ġnourr": 1491,
      "bis": 1492,
      "cer": 1493,
      "ip": 1494,
      "ies": 1495,
      "ocr": 1496,
      "rage": 1497,
      "Ġz": 1498,
      "ĠÅĵu": 1499
    },
    "merges": [
      [
        "Ġ",
        "l"
      ],
      [
        "Ġ",
        "d"
      ],
      [
        "e",
        "n"
      ],
      [
        "Ġ",
        "p"
      ],
      [
        "Ġ",
        "s"
      ],
      [
        "Ġ",
        "c"
      ],
      [
        "o",
        "u"
      ],
      [
        "e",
        "s"
      ],
      [
        "a",
        "i"
      ],
      [
        "r",
        "e"
      ],
      [
        "o",
        "n"
      ],
      [
        "Ã",
        "©"
      ],
      [
        "q",
        "u"
      ],
      [
        "Ġ",
        "m"
      ],
      [
        "a",
        "n"
      ],
      [
        "e",
        "r"
      ],
      [
        "Ġ",
        "a"
      ],
      [
        "Ġ",
        "qu"
      ],
      [
        "Ġ",
        "t"
      ],
      [
        "e",
        "u"
      ],
      [
        "i",
        "t"
      ],
      [
        "e",
        "t"
      ],
      [
        "Ġ",
        "f"
      ],
      [
        "Ġ",
        "v"
      ],
      [
        "i",
        "l"
      ],
      [
        "Ġd",
        "e"
      ],
      [
        "Ġ",
        "n"
      ],
      [
        "u",
        "n"
      ],
      [
        "en",
        "t"
      ],
      [
        "o",
        "i"
      ],
      [
        "Ġl",
        "e"
      ],
      [
        "a",
        "r"
      ],
      [
        "Ġ",
        "et"
      ],
      [
        "ai",
        "t"
      ],
      [
        "l",
        "e"
      ],
      [
        "ou",
        "r"
      ],
      [
        "Ġl",
        "a"
      ],
      [
        "Ġ",
        "b"
      ],
      [
        "a",
        "u"
      ],
      [
        "o",
        "r"
      ],
      [
        "Ġ",
        "j"
      ],
      [
        "an",
        "t"
      ],
      [
        "i",
        "n"
      ],
      [
        "Ġ",
        "en"
      ],
      [
        "Ã",
        "ł"
      ],
      [
        "i",
        "s"
      ],
      [
        "Ġ",
        "un"
      ],
      [
        "Ġ",
        "r"
      ],
      [
        "Ġqu",
        "e"
      ],
      [
        "t",
        "e"
      ],
      [
        "ou",
        "s"
      ],
      [
        "s",
        "e"
      ],
      [
        "Ġa",
        "u"
      ],
      [
        "Ġl",
        "es"
      ],
      [
        "o",
        "m"
      ],
      [
        "Ġ",
        ";"
      ],
      [
        "Ġ",
        ":"
      ],
      [
        "ai",
        "s"
      ],
      [
        "eu",
        "r"
      ],
      [
        "Ġc",
        "h"
      ],
      [
        "Ġ",
        "Ãł"
      ],
      [
        "Ġ",
        "g"
      ],
      [
        "Ġ",
        "il"
      ],
      [
        "t",
        "re"
      ],
      [
        "a",
        "s"
      ],
      [
        "Ã",
        "¨"
      ],
      [
        "Ġp",
        "r"
      ],
      [
        "e",
        "l"
      ],
      [
        "m",
        "e"
      ],
      [
        "es",
        "t"
      ],
      [
        "u",
        "s"
      ],
      [
        "eu",
        "x"
      ],
      [
        "i",
        "en"
      ],
      [
        "Ġs",
        "on"
      ],
      [
        "<",
        "|"
      ],
      [
        "a",
        "t"
      ],
      [
        "|",
        ">"
      ],
      [
        "g",
        "e"
      ],
      [
        "Ġp",
        "l"
      ],
      [
        "c",
        "h"
      ],
      [
        "Ġp",
        "ar"
      ],
      [
        "Ġt",
        "r"
      ],
      [
        "Ġn",
        "e"
      ],
      [
        "ou",
        "t"
      ],
      [
        "Ġc",
        "e"
      ],
      [
        "Ã",
        "ª"
      ],
      [
        "Ġs",
        "e"
      ],
      [
        "Ã©",
        "t"
      ],
      [
        "ai",
        "n"
      ],
      [
        "an",
        "s"
      ],
      [
        "Ġs",
        "u"
      ],
      [
        "c",
        "e"
      ],
      [
        "i",
        "r"
      ],
      [
        "Ġ",
        "h"
      ],
      [
        "Ġj",
        "e"
      ],
      [
        "Ġd",
        "es"
      ],
      [
        "a",
        "l"
      ],
      [
        "Ġp",
        "our"
      ],
      [
        "Ġs",
        "a"
      ],
      [
        "Ġqu",
        "i"
      ],
      [
        "e",
        "m"
      ],
      [
        "en",
        "d"
      ],
      [
        "on",
        "t"
      ],
      [
        "or",
        "t"
      ],
      [
        "Ġd",
        "u"
      ],
      [
        "Ġp",
        "as"
      ],
      [
        "t",
        "it"
      ],
      [
        "u",
        "i"
      ],
      [
        "oi",
        "n"
      ],
      [
        "Ġ",
        "re"
      ],
      [
        "Ġv",
        "ous"
      ],
      [
        "on",
        "s"
      ],
      [
        "Ġ",
        "<|"
      ],
      [
        "tit",
        "re"
      ],
      [
        "oi",
        "s"
      ],
      [
        "i",
        "e"
      ],
      [
        "Ġ",
        "?"
      ],
      [
        "Ġv",
        "o"
      ],
      [
        "u",
        "t"
      ],
      [
        "on",
        "n"
      ],
      [
        "Ġt",
        "out"
      ],
      [
        "Ġd",
        "it"
      ],
      [
        "Ġc",
        "om"
      ],
      [
        "el",
        "le"
      ],
      [
        ".",
        "."
      ],
      [
        "ou",
        "v"
      ],
      [
        "an",
        "d"
      ],
      [
        "Ġa",
        "v"
      ],
      [
        "qu",
        "e"
      ],
      [
        "g",
        "n"
      ],
      [
        "Ã©",
        "s"
      ],
      [
        "Ġpl",
        "us"
      ],
      [
        "Ã",
        "¢"
      ],
      [
        "p",
        "r"
      ],
      [
        "a",
        "m"
      ],
      [
        "o",
        "s"
      ],
      [
        "a",
        "b"
      ],
      [
        "Ã¨",
        "re"
      ],
      [
        "Ġ",
        "est"
      ],
      [
        "Ġc",
        "r"
      ],
      [
        "i",
        "er"
      ],
      [
        "Ġs",
        "i"
      ],
      [
        "ai",
        "re"
      ],
      [
        "d",
        "e"
      ],
      [
        "Ġb",
        "ien"
      ],
      [
        "Ġd",
        "i"
      ],
      [
        "Ġsu",
        "r"
      ],
      [
        "Ġl",
        "eur"
      ],
      [
        "Ġg",
        "r"
      ],
      [
        "l",
        "es"
      ],
      [
        "a",
        "ge"
      ],
      [
        "Ġl",
        "ui"
      ],
      [
        "Ġ",
        "on"
      ],
      [
        "e",
        "z"
      ],
      [
        "i",
        "m"
      ],
      [
        "Ġd",
        "Ã©"
      ],
      [
        "r",
        "es"
      ],
      [
        "ou",
        "p"
      ],
      [
        "e",
        "au"
      ],
      [
        "Ġc",
        "et"
      ],
      [
        "f",
        "f"
      ],
      [
        "Ġd",
        "ans"
      ],
      [
        "Ġp",
        "eu"
      ],
      [
        "Ġf",
        "ait"
      ],
      [
        "Ġ",
        "Ã©t"
      ],
      [
        "Ã",
        "´"
      ],
      [
        "en",
        "s"
      ],
      [
        "Ġm",
        "ais"
      ],
      [
        "a",
        "v"
      ],
      [
        "Ġm",
        "a"
      ],
      [
        "Ġque",
        "l"
      ],
      [
        "i",
        "v"
      ],
      [
        "ai",
        "ent"
      ],
      [
        "au",
        "t"
      ],
      [
        "Ã©",
        "r"
      ],
      [
        "em",
        "p"
      ],
      [
        "our",
        "s"
      ],
      [
        "Ġun",
        "e"
      ],
      [
        "c",
        "i"
      ],
      [
        "Ġn",
        "ous"
      ],
      [
        "Ã",
        "®"
      ],
      [
        "s",
        "i"
      ],
      [
        "Ġc",
        "es"
      ],
      [
        "Ã©",
        "e"
      ],
      [
        "ar",
        "d"
      ],
      [
        "Ġl",
        "i"
      ],
      [
        "Ġm",
        "on"
      ],
      [
        "Ġ",
        "Ã©"
      ],
      [
        "Ġs",
        "es"
      ],
      [
        "oi",
        "r"
      ],
      [
        "m",
        "ent"
      ],
      [
        "Ġc",
        "on"
      ],
      [
        "Ġ",
        "e"
      ],
      [
        "se",
        "p"
      ],
      [
        "o",
        "t"
      ],
      [
        "u",
        "is"
      ],
      [
        "a",
        "p"
      ],
      [
        "Ġau",
        "x"
      ],
      [
        "oin",
        "t"
      ],
      [
        "un",
        "e"
      ],
      [
        "Ġ",
        "o"
      ],
      [
        "u",
        "re"
      ],
      [
        "Ã",
        "»"
      ],
      [
        "a",
        "c"
      ],
      [
        "o",
        "it"
      ],
      [
        "o",
        "p"
      ],
      [
        "Ġp",
        "oint"
      ],
      [
        "Ġs",
        "ans"
      ],
      [
        "er",
        "s"
      ],
      [
        "u",
        "r"
      ],
      [
        "Ã´",
        "t"
      ],
      [
        "Ġm",
        "e"
      ],
      [
        "er",
        "t"
      ],
      [
        "Ġcet",
        "te"
      ],
      [
        "â",
        "Ģ"
      ],
      [
        "âĢ",
        "Ļ"
      ],
      [
        "Ġt",
        "ou"
      ],
      [
        "Ġt",
        "ous"
      ],
      [
        "Ġ",
        "!"
      ],
      [
        "eur",
        "s"
      ],
      [
        "o",
        "l"
      ],
      [
        "Ġ",
        "in"
      ],
      [
        "il",
        "le"
      ],
      [
        "an",
        "g"
      ],
      [
        "n",
        "e"
      ],
      [
        "e",
        "c"
      ],
      [
        "Ã¨",
        "s"
      ],
      [
        "Ġa",
        "l"
      ],
      [
        "Ġs",
        "er"
      ],
      [
        "Ġd",
        "eux"
      ],
      [
        "Ġa",
        "m"
      ],
      [
        "Ãª",
        "me"
      ],
      [
        "Ġf",
        "ut"
      ],
      [
        "om",
        "me"
      ],
      [
        "i",
        "ent"
      ],
      [
        "Ġd",
        "is"
      ],
      [
        "Ġf",
        "r"
      ],
      [
        "in",
        "e"
      ],
      [
        "au",
        "tre"
      ],
      [
        "Ġquel",
        "que"
      ],
      [
        "Ġm",
        "al"
      ],
      [
        "Ġa",
        "r"
      ],
      [
        "Ġr",
        "Ã©"
      ],
      [
        "Ġ",
        "ent"
      ],
      [
        "Ġp",
        "uis"
      ],
      [
        "ch",
        "e"
      ],
      [
        "au",
        "x"
      ],
      [
        "Ġcom",
        "me"
      ],
      [
        "..",
        ".."
      ],
      [
        "Ġg",
        "ens"
      ],
      [
        "t",
        "r"
      ],
      [
        "Ġc",
        "our"
      ],
      [
        "Ġm",
        "ar"
      ],
      [
        "il",
        "l"
      ],
      [
        "Ã»",
        "t"
      ],
      [
        "o",
        "y"
      ],
      [
        "Ġr",
        "en"
      ],
      [
        "ab",
        "le"
      ],
      [
        "u",
        "l"
      ],
      [
        "Ġson",
        "t"
      ],
      [
        "Ġc",
        "el"
      ],
      [
        "Ġ",
        "y"
      ],
      [
        "Ġf",
        "ort"
      ],
      [
        "b",
        "l"
      ],
      [
        "u",
        "e"
      ],
      [
        "Ġf",
        "aire"
      ],
      [
        "a",
        "g"
      ],
      [
        "Ġ",
        "elle"
      ],
      [
        "Ġc",
        "ar"
      ],
      [
        "Ġpr",
        "o"
      ],
      [
        "Ġn",
        "o"
      ],
      [
        "i",
        "re"
      ],
      [
        "Ãª",
        "tre"
      ],
      [
        "u",
        "it"
      ],
      [
        "i",
        "eux"
      ],
      [
        "Ġt",
        "ant"
      ],
      [
        "Ġ",
        "ou"
      ],
      [
        "Ġp",
        "er"
      ],
      [
        "Ġau",
        "s"
      ],
      [
        "Ãª",
        "te"
      ],
      [
        "Ġa",
        "p"
      ],
      [
        "or",
        "te"
      ],
      [
        "Ġen",
        "f"
      ],
      [
        "Ġil",
        "s"
      ],
      [
        "o",
        "se"
      ],
      [
        "Ġt",
        "emp"
      ],
      [
        "il",
        "s"
      ],
      [
        "Ġb",
        "eau"
      ],
      [
        "Ġav",
        "ec"
      ],
      [
        "Ã",
        "§"
      ],
      [
        "an",
        "ce"
      ],
      [
        "ant",
        "s"
      ],
      [
        "on",
        "d"
      ],
      [
        "Ġpar",
        "t"
      ],
      [
        "ou",
        "l"
      ],
      [
        "Ã®",
        "tre"
      ],
      [
        "Ãª",
        "t"
      ],
      [
        "onn",
        "e"
      ],
      [
        "au",
        "v"
      ],
      [
        "end",
        "re"
      ],
      [
        "Ġm",
        "es"
      ],
      [
        "Ġm",
        "ain"
      ],
      [
        "eu",
        "t"
      ],
      [
        "Ġcom",
        "p"
      ],
      [
        "d",
        "r"
      ],
      [
        "Ġen",
        "c"
      ],
      [
        "Ġb",
        "r"
      ],
      [
        "Ġno",
        "tre"
      ],
      [
        "a",
        "gn"
      ],
      [
        "ai",
        "l"
      ],
      [
        "Ġtr",
        "ouv"
      ],
      [
        "ĠÃ©t",
        "ait"
      ],
      [
        "Ġa",
        "s"
      ],
      [
        "m",
        "es"
      ],
      [
        "Ġf",
        "it"
      ],
      [
        "eu",
        "re"
      ],
      [
        "Ġr",
        "ien"
      ],
      [
        "Ġe",
        "x"
      ],
      [
        "c",
        "r"
      ],
      [
        "Ġ",
        "es"
      ],
      [
        "Ġc",
        "ont"
      ],
      [
        "Ġgr",
        "and"
      ],
      [
        "i",
        "Ã¨re"
      ],
      [
        "Ġqu",
        "and"
      ],
      [
        "om",
        "b"
      ],
      [
        "oin",
        "s"
      ],
      [
        "Ġl",
        "oup"
      ],
      [
        "er",
        "re"
      ],
      [
        "Ġde",
        "v"
      ],
      [
        "Ġn",
        "i"
      ],
      [
        "i",
        "on"
      ],
      [
        "as",
        "s"
      ],
      [
        "Ġpeu",
        "t"
      ],
      [
        "Ġm",
        "oi"
      ],
      [
        "ent",
        "s"
      ],
      [
        "Ã¢",
        "t"
      ],
      [
        "u",
        "m"
      ],
      [
        "Ġf",
        "aut"
      ],
      [
        "Ġb",
        "on"
      ],
      [
        "Ġj",
        "u"
      ],
      [
        "Ġvo",
        "y"
      ],
      [
        "Ġp",
        "a"
      ],
      [
        "Ġm",
        "Ãªme"
      ],
      [
        "in",
        "s"
      ],
      [
        "or",
        "d"
      ],
      [
        "Ġtemp",
        "s"
      ],
      [
        "Ġal",
        "l"
      ],
      [
        "c",
        "c"
      ],
      [
        "es",
        "s"
      ],
      [
        "Ġv",
        "ie"
      ],
      [
        "Ġde",
        "m"
      ],
      [
        "Ġav",
        "ait"
      ],
      [
        "g",
        "er"
      ],
      [
        "i",
        "gn"
      ],
      [
        "Ġl",
        "Ãł"
      ],
      [
        "Ġc",
        "o"
      ],
      [
        "Ã©t",
        "ait"
      ],
      [
        "pr",
        "it"
      ],
      [
        "on",
        "c"
      ],
      [
        "Ġj",
        "our"
      ],
      [
        "ch",
        "er"
      ],
      [
        "v",
        "ous"
      ],
      [
        "oi",
        "re"
      ],
      [
        "Ġau",
        "tre"
      ],
      [
        "ap",
        "p"
      ],
      [
        "an",
        "im"
      ],
      [
        "om",
        "p"
      ],
      [
        "Ġent",
        "re"
      ],
      [
        "b",
        "le"
      ],
      [
        "Ġs",
        "ort"
      ],
      [
        "in",
        "t"
      ],
      [
        "se",
        "z"
      ],
      [
        "Ġpas",
        "s"
      ],
      [
        "Ġma",
        "Ã®tre"
      ],
      [
        "Ġm",
        "et"
      ],
      [
        "Ġn",
        "on"
      ],
      [
        "Ġl",
        "ais"
      ],
      [
        "Ġc",
        "or"
      ],
      [
        "ien",
        "s"
      ],
      [
        "Ġt",
        "u"
      ],
      [
        "j",
        "ours"
      ],
      [
        "m",
        "p"
      ],
      [
        "it",
        "e"
      ],
      [
        "Ġf",
        "ais"
      ],
      [
        "Ġtou",
        "jours"
      ],
      [
        "Ġs",
        "eu"
      ],
      [
        "it",
        "Ã©"
      ],
      [
        "at",
        "s"
      ],
      [
        "Ġc",
        "ert"
      ],
      [
        "Ġg",
        "u"
      ],
      [
        "Ġvo",
        "tre"
      ],
      [
        "i",
        "c"
      ],
      [
        "Â",
        "Ĵ"
      ],
      [
        "Ġch",
        "ose"
      ],
      [
        "ain",
        "si"
      ],
      [
        "Ġleur",
        "s"
      ],
      [
        "Ġcert",
        "ain"
      ],
      [
        "Ġd",
        "onc"
      ],
      [
        "Ġc",
        "oup"
      ],
      [
        "Ã©",
        "c"
      ],
      [
        "Ġqu",
        "oi"
      ],
      [
        "Ġv",
        "en"
      ],
      [
        "Ġau",
        "t"
      ],
      [
        "r",
        "ait"
      ],
      [
        "et",
        "te"
      ],
      [
        "Ġn",
        "os"
      ],
      [
        "Ġ",
        "ai"
      ],
      [
        "Ġd",
        "ou"
      ],
      [
        "Ġp",
        "e"
      ],
      [
        "or",
        "s"
      ],
      [
        "Ġren",
        "ard"
      ],
      [
        "i",
        "que"
      ],
      [
        "r",
        "ent"
      ],
      [
        "Ġv",
        "oir"
      ],
      [
        "Ġch",
        "ac"
      ],
      [
        "al",
        "l"
      ],
      [
        "Ġdi",
        "eux"
      ],
      [
        "Ġtou",
        "te"
      ],
      [
        "Ġ",
        "ainsi"
      ],
      [
        "Ġf",
        "em"
      ],
      [
        "Ġr",
        "ais"
      ],
      [
        "Ã",
        "¹"
      ],
      [
        "Ġch",
        "ez"
      ],
      [
        "Ġ",
        "im"
      ],
      [
        "Ġa",
        "t"
      ],
      [
        "Ġv",
        "oul"
      ],
      [
        "Ġaus",
        "si"
      ],
      [
        "Ġdi",
        "re"
      ],
      [
        "Ġchac",
        "un"
      ],
      [
        "Ġd",
        "ont"
      ],
      [
        "Ġs",
        "our"
      ],
      [
        "a",
        "d"
      ],
      [
        "o",
        "re"
      ],
      [
        "Å",
        "ĵ"
      ],
      [
        "on",
        "g"
      ],
      [
        "Ġm",
        "Ã©"
      ],
      [
        "it",
        "er"
      ],
      [
        "Ġf",
        "or"
      ],
      [
        "Ġcel",
        "ui"
      ],
      [
        "Ã©",
        "p"
      ],
      [
        "Ġm",
        "an"
      ],
      [
        "Ġv",
        "ois"
      ],
      [
        "Ġtr",
        "op"
      ],
      [
        "end",
        "ant"
      ],
      [
        "Ġcom",
        "m"
      ],
      [
        "v",
        "e"
      ],
      [
        "Ġm",
        "oins"
      ],
      [
        "en",
        "ce"
      ],
      [
        "Ġf",
        "l"
      ],
      [
        "u",
        "x"
      ],
      [
        "Ġd",
        "onn"
      ],
      [
        "Ġm",
        "ort"
      ],
      [
        "Ġm",
        "ieux"
      ],
      [
        "il",
        "les"
      ],
      [
        "y",
        "ant"
      ],
      [
        "Ġp",
        "et"
      ],
      [
        "Ġp",
        "ort"
      ],
      [
        "Ġv",
        "oi"
      ],
      [
        "i",
        "g"
      ],
      [
        "j",
        "et"
      ],
      [
        "Ã©",
        "l"
      ],
      [
        "Ġt",
        "el"
      ],
      [
        "Ġf",
        "ont"
      ],
      [
        "is",
        "t"
      ],
      [
        "Ġenf",
        "in"
      ],
      [
        "Ġenc",
        "or"
      ],
      [
        "Ġ",
        "("
      ],
      [
        "Ġ",
        "anim"
      ],
      [
        "es",
        "se"
      ],
      [
        "Ġj",
        "us"
      ],
      [
        "Ġch",
        "er"
      ],
      [
        "ain",
        "e"
      ],
      [
        "Ġh",
        "omme"
      ],
      [
        "i",
        "d"
      ],
      [
        "Ġ",
        "Ã¢"
      ],
      [
        "Ġs",
        "ouv"
      ],
      [
        "Ġm",
        "ot"
      ],
      [
        "Ġv",
        "a"
      ],
      [
        "Ġj",
        "am"
      ],
      [
        "Ã®",
        "t"
      ],
      [
        "Ġli",
        "on"
      ],
      [
        "Ġs",
        "ou"
      ],
      [
        "Ġv",
        "ient"
      ],
      [
        "ar",
        "t"
      ],
      [
        "Ġch",
        "at"
      ],
      [
        "at",
        "t"
      ],
      [
        "o",
        "g"
      ],
      [
        "r",
        "ai"
      ],
      [
        "Ġl",
        "ong"
      ],
      [
        "Ġf",
        "er"
      ],
      [
        "Ġr",
        "oi"
      ],
      [
        "Ġse",
        "m"
      ],
      [
        "re",
        "m"
      ],
      [
        "Ġre",
        "p"
      ],
      [
        "Ġre",
        "t"
      ],
      [
        "Ġvo",
        "il"
      ],
      [
        "Ġfem",
        "me"
      ],
      [
        "d",
        "re"
      ],
      [
        "m",
        "oi"
      ],
      [
        "Ġ",
        "emp"
      ],
      [
        "qu",
        "es"
      ],
      [
        "il",
        "e"
      ],
      [
        "ier",
        "s"
      ],
      [
        "Ġvoil",
        "Ãł"
      ],
      [
        "Ġp",
        "auv"
      ],
      [
        "Ġf",
        "in"
      ],
      [
        "Ġch",
        "ar"
      ],
      [
        "as",
        "se"
      ],
      [
        "em",
        "ent"
      ],
      [
        "Ġo",
        "Ã¹"
      ],
      [
        "Ġcel",
        "a"
      ],
      [
        "Ġjam",
        "ais"
      ],
      [
        "l",
        "a"
      ],
      [
        "ĠdÃ©",
        "p"
      ],
      [
        "Ġar",
        "r"
      ],
      [
        "Ġpet",
        "it"
      ],
      [
        "h",
        "omme"
      ],
      [
        "Ġpr",
        "in"
      ],
      [
        "ir",
        "ent"
      ],
      [
        "Ġa",
        "ff"
      ],
      [
        "Ġt",
        "e"
      ],
      [
        "it",
        "Ã´t"
      ],
      [
        "Ġv",
        "it"
      ],
      [
        "Ġr",
        "at"
      ],
      [
        "Ġr",
        "end"
      ],
      [
        "Ã¨",
        "rent"
      ],
      [
        "Ġpr",
        "is"
      ],
      [
        "Ġvo",
        "l"
      ],
      [
        "Ġju",
        "p"
      ],
      [
        "r",
        "a"
      ],
      [
        "Ġ",
        "eut"
      ],
      [
        "Ġs",
        "ous"
      ],
      [
        "Ã©",
        "n"
      ],
      [
        "o",
        "le"
      ],
      [
        "Ġc",
        "ons"
      ],
      [
        "am",
        "p"
      ],
      [
        "Ġcon",
        "tre"
      ],
      [
        "Ġser",
        "v"
      ],
      [
        "Ġseu",
        "l"
      ],
      [
        "Ġt",
        "our"
      ],
      [
        "Ġsu",
        "is"
      ],
      [
        "Ġsa",
        "v"
      ],
      [
        "ĠrÃ©",
        "p"
      ],
      [
        "b",
        "e"
      ],
      [
        "Ġp",
        "ie"
      ],
      [
        "Ġt",
        "omb"
      ],
      [
        "oi",
        "e"
      ],
      [
        "Ġvo",
        "s"
      ],
      [
        "pr",
        "Ã¨s"
      ],
      [
        "Ġdi",
        "eu"
      ],
      [
        "ang",
        "er"
      ],
      [
        "Ġrais",
        "on"
      ],
      [
        "j",
        "e"
      ],
      [
        "Ġ",
        "Ãªtre"
      ],
      [
        "re",
        "t"
      ],
      [
        "Ġt",
        "Ãªte"
      ],
      [
        "Ġn",
        "ouv"
      ],
      [
        "Ġpr",
        "op"
      ],
      [
        "Ġtr",
        "ois"
      ],
      [
        "Ġli",
        "eu"
      ],
      [
        "p",
        "le"
      ],
      [
        "Ġ",
        "\""
      ],
      [
        "Ġs",
        "oit"
      ],
      [
        "an",
        "c"
      ],
      [
        "Ġa",
        "cc"
      ],
      [
        "Ġv",
        "iv"
      ],
      [
        "oi",
        "se"
      ],
      [
        "ain",
        "s"
      ],
      [
        "Ġap",
        "p"
      ],
      [
        "Ġas",
        "sez"
      ],
      [
        "a",
        "ce"
      ],
      [
        "d",
        "s"
      ],
      [
        "i",
        "ce"
      ],
      [
        "i",
        "ci"
      ],
      [
        "Ġs",
        "in"
      ],
      [
        "Ġm",
        "is"
      ],
      [
        "ĠdÃ©",
        "f"
      ],
      [
        "a",
        "le"
      ],
      [
        "s",
        "itÃ´t"
      ],
      [
        "Ġb",
        "out"
      ],
      [
        "Ġpr",
        "end"
      ],
      [
        "....",
        "...."
      ],
      [
        "Ġmar",
        "ch"
      ],
      [
        "ail",
        "le"
      ],
      [
        "Ġjup",
        "iter"
      ],
      [
        "Ġp",
        "rem"
      ],
      [
        "Ġc",
        "l"
      ],
      [
        "Ġc",
        "ent"
      ],
      [
        "Ġf",
        "able"
      ],
      [
        "Ġj",
        "eu"
      ],
      [
        "Ġpl",
        "ais"
      ],
      [
        "Ġtr",
        "ait"
      ],
      [
        "Ġsa",
        "ge"
      ],
      [
        "Ġaus",
        "sitÃ´t"
      ],
      [
        "Ġpe",
        "ine"
      ],
      [
        "Ã©",
        "m"
      ],
      [
        "Ġat",
        "t"
      ],
      [
        "Ġd",
        "r"
      ],
      [
        "Ġs",
        "ais"
      ],
      [
        "Ã©",
        "g"
      ],
      [
        "Ã¨",
        "res"
      ],
      [
        "Ġmal",
        "h"
      ],
      [
        "Ġpro",
        "f"
      ],
      [
        "o",
        "qu"
      ],
      [
        "Ġc",
        "eux"
      ],
      [
        "Ġa",
        "d"
      ],
      [
        "Ġv",
        "ers"
      ],
      [
        "ant",
        "e"
      ],
      [
        "Ġe",
        "Ã»t"
      ],
      [
        "Ġmain",
        "t"
      ],
      [
        "c",
        "on"
      ],
      [
        "i",
        "Ã©"
      ],
      [
        "Ġa",
        "yant"
      ],
      [
        "au",
        "d"
      ],
      [
        "Ġch",
        "e"
      ],
      [
        "Ġch",
        "ien"
      ],
      [
        "Ġre",
        "v"
      ],
      [
        "Ġlais",
        "s"
      ],
      [
        "a",
        "me"
      ],
      [
        "b",
        "re"
      ],
      [
        "f",
        "ois"
      ],
      [
        "g",
        "r"
      ],
      [
        "g",
        "ent"
      ],
      [
        "u",
        "se"
      ],
      [
        "en",
        "f"
      ],
      [
        "Ġp",
        "le"
      ],
      [
        "Ġp",
        "ouv"
      ],
      [
        "Ã©",
        "d"
      ],
      [
        "is",
        "s"
      ],
      [
        "Ġh",
        "um"
      ],
      [
        "am",
        "our"
      ],
      [
        "ĠÃ©",
        "p"
      ],
      [
        "Ġcomp",
        "agn"
      ],
      [
        "Ġsouv",
        "ent"
      ],
      [
        "c",
        "l"
      ],
      [
        "l",
        "er"
      ],
      [
        "Ġp",
        "h"
      ],
      [
        "Ġn",
        "ul"
      ],
      [
        "om",
        "m"
      ],
      [
        "om",
        "mes"
      ],
      [
        "at",
        "ure"
      ],
      [
        "Ġgr",
        "Ã¢"
      ],
      [
        "Ġmon",
        "de"
      ],
      [
        "i",
        "b"
      ],
      [
        "t",
        "er"
      ],
      [
        "Ġ",
        "ont"
      ],
      [
        "Ġs",
        "ot"
      ],
      [
        "ou",
        "x"
      ],
      [
        "Ġf",
        "ils"
      ],
      [
        "Ġv",
        "eut"
      ],
      [
        "ar",
        "r"
      ],
      [
        "Ġre",
        "g"
      ],
      [
        "Ġam",
        "i"
      ],
      [
        "i",
        "f"
      ],
      [
        "Ġ",
        "or"
      ],
      [
        "Ġs",
        "ent"
      ],
      [
        "ab",
        "les"
      ],
      [
        "Ġcour",
        "t"
      ],
      [
        "Ġpauv",
        "re"
      ],
      [
        "t",
        "ant"
      ],
      [
        "y",
        "s"
      ],
      [
        "ai",
        "r"
      ],
      [
        "on",
        "de"
      ],
      [
        "er",
        "n"
      ],
      [
        "Ġpr",
        "Ã©s"
      ],
      [
        "Ġpeu",
        "ple"
      ],
      [
        "Ġper",
        "d"
      ],
      [
        "Ġap",
        "pr"
      ],
      [
        "Ġes",
        "prit"
      ],
      [
        "a",
        "de"
      ],
      [
        "ai",
        "gn"
      ],
      [
        "Ġa",
        "prÃ¨s"
      ],
      [
        "Ġf",
        "our"
      ],
      [
        "le",
        "z"
      ],
      [
        "Ġj",
        "ours"
      ],
      [
        "Ġen",
        "v"
      ],
      [
        "Ġy",
        "eux"
      ],
      [
        "v",
        "re"
      ],
      [
        "Ġd",
        "Ã©s"
      ],
      [
        "Ġp",
        "ens"
      ],
      [
        "Ġm",
        "ont"
      ],
      [
        "Ġb",
        "onne"
      ],
      [
        "Ġpr",
        "Ã©"
      ],
      [
        "Ġse",
        "c"
      ],
      [
        "Ãªt",
        "es"
      ],
      [
        "Ġpa",
        "re"
      ],
      [
        "e",
        "x"
      ],
      [
        "i",
        "x"
      ],
      [
        "m",
        "Ãªme"
      ],
      [
        "o",
        "c"
      ],
      [
        "u",
        "p"
      ],
      [
        "Ġp",
        "Ã¨re"
      ],
      [
        "Ġp",
        "ers"
      ],
      [
        "Ġc",
        "er"
      ],
      [
        "es",
        "te"
      ],
      [
        "Ġb",
        "l"
      ],
      [
        "Ġb",
        "er"
      ],
      [
        "Ġb",
        "elle"
      ],
      [
        "Ġg",
        "l"
      ],
      [
        "Ġvo",
        "it"
      ],
      [
        "ouv",
        "r"
      ],
      [
        "Ġsem",
        "bl"
      ],
      [
        "Ġarr",
        "iv"
      ],
      [
        "j",
        "our"
      ],
      [
        "Ġs",
        "oi"
      ],
      [
        "Ġqu",
        "it"
      ],
      [
        "Ġv",
        "eux"
      ],
      [
        "ent",
        "e"
      ],
      [
        "Ġh",
        "aut"
      ],
      [
        "Ġtout",
        "es"
      ],
      [
        "Ġsour",
        "is"
      ],
      [
        "a",
        "re"
      ],
      [
        "c",
        "es"
      ],
      [
        "m",
        "i"
      ],
      [
        "p",
        "endant"
      ],
      [
        "Ġl",
        "oin"
      ],
      [
        "Ġs",
        "oup"
      ],
      [
        "Ġc",
        "onn"
      ],
      [
        "Ġm",
        "er"
      ],
      [
        "Ġt",
        "on"
      ],
      [
        "et",
        "s"
      ],
      [
        "ar",
        "de"
      ],
      [
        "Ġb",
        "ois"
      ],
      [
        "au",
        "r"
      ],
      [
        "Ġtr",
        "av"
      ],
      [
        "Ġce",
        "pendant"
      ],
      [
        "Ġsu",
        "iv"
      ],
      [
        "Ġdi",
        "v"
      ],
      [
        "Ġdis",
        "ait"
      ],
      [
        "Ġfort",
        "une"
      ],
      [
        "Ġenc",
        "ore"
      ],
      [
        "Ġpie",
        "ds"
      ],
      [
        "Ġmarch",
        "and"
      ],
      [
        "Ġplais",
        "ir"
      ],
      [
        "Ġche",
        "v"
      ],
      [
        "i",
        "el"
      ],
      [
        "p",
        "s"
      ],
      [
        "t",
        "es"
      ],
      [
        "Ġl",
        "og"
      ],
      [
        "Ġs",
        "ait"
      ],
      [
        "Ġc",
        "elle"
      ],
      [
        "Ġf",
        "ois"
      ],
      [
        "Ġf",
        "ond"
      ],
      [
        "Ġb",
        "el"
      ],
      [
        "ien",
        "dr"
      ],
      [
        "gn",
        "e"
      ],
      [
        "Ġjus",
        "qu"
      ],
      [
        "c",
        "oup"
      ],
      [
        "g",
        "le"
      ],
      [
        "l",
        "Ãł"
      ],
      [
        "o",
        "d"
      ],
      [
        "Ġ",
        "eux"
      ],
      [
        "Ġm",
        "it"
      ],
      [
        "Ġm",
        "our"
      ],
      [
        "or",
        "m"
      ],
      [
        "Ġh",
        "ab"
      ],
      [
        "Ġre",
        "c"
      ],
      [
        "Ã©r",
        "it"
      ],
      [
        "ag",
        "es"
      ],
      [
        "Ġbeau",
        "coup"
      ],
      [
        "Ġcor",
        "ps"
      ],
      [
        "Ġim",
        "p"
      ],
      [
        "Ġprin",
        "ce"
      ],
      [
        "Ġsin",
        "ge"
      ],
      [
        "o",
        "b"
      ],
      [
        "Ġc",
        "ol"
      ],
      [
        "Ġt",
        "erre"
      ],
      [
        "Ġsu",
        "jet"
      ],
      [
        "ĠÃ©",
        "c"
      ],
      [
        "Ġenf",
        "ants"
      ],
      [
        "Ġdem",
        "and"
      ],
      [
        "Ġanim",
        "aux"
      ],
      [
        "Ġmot",
        "s"
      ],
      [
        "ĠgrÃ¢",
        "ce"
      ],
      [
        "i",
        "eu"
      ],
      [
        "i",
        "ge"
      ],
      [
        "t",
        "u"
      ],
      [
        "Ġp",
        "u"
      ],
      [
        "Ġp",
        "os"
      ],
      [
        "Ġc",
        "as"
      ],
      [
        "Ġm",
        "oin"
      ],
      [
        "an",
        "ge"
      ],
      [
        "Ġf",
        "a"
      ],
      [
        "Ġf",
        "ou"
      ],
      [
        "Ġf",
        "au"
      ],
      [
        "Ġv",
        "ain"
      ],
      [
        "Ġv",
        "rai"
      ],
      [
        "Ġtr",
        "Ã©s"
      ],
      [
        "em",
        "b"
      ],
      [
        "Ġgr",
        "os"
      ],
      [
        "ĠÃ©t",
        "ant"
      ],
      [
        "av",
        "ait"
      ],
      [
        "Ġvoi",
        "ci"
      ],
      [
        "Ġdr",
        "oit"
      ],
      [
        "Ġple",
        "in"
      ],
      [
        "i",
        "qu"
      ],
      [
        "en",
        "ir"
      ],
      [
        "Ġc",
        "a"
      ],
      [
        "Ġm",
        "or"
      ],
      [
        "Ġn",
        "ature"
      ],
      [
        "is",
        "e"
      ],
      [
        "Ġpr",
        "Ã©t"
      ],
      [
        "Ġpl",
        "ain"
      ],
      [
        "eau",
        "x"
      ],
      [
        "op",
        "e"
      ],
      [
        "eure",
        "ux"
      ],
      [
        "Åĵ",
        "ur"
      ],
      [
        "Ġfor",
        "ce"
      ],
      [
        "Ġaff",
        "aire"
      ],
      [
        "oise",
        "au"
      ],
      [
        "Ġlog",
        "is"
      ],
      [
        "a",
        "Ã®t"
      ],
      [
        "i",
        "ons"
      ],
      [
        "Ġl",
        "ou"
      ],
      [
        "Ġd",
        "onne"
      ],
      [
        "en",
        "se"
      ],
      [
        "Ġp",
        "orte"
      ],
      [
        "Ġs",
        "auv"
      ],
      [
        "Ġm",
        "ille"
      ],
      [
        "Ġv",
        "ou"
      ],
      [
        "ais",
        "s"
      ],
      [
        "Ġpr",
        "om"
      ],
      [
        "Ġpr",
        "endre"
      ],
      [
        "est",
        "in"
      ],
      [
        "ch",
        "Ã©"
      ],
      [
        "Ġtr",
        "oup"
      ],
      [
        "Ġtr",
        "omp"
      ],
      [
        "ie",
        "z"
      ],
      [
        "im",
        "p"
      ],
      [
        "ĠdÃ©",
        "l"
      ],
      [
        "Ġli",
        "eux"
      ],
      [
        "Ġo",
        "b"
      ],
      [
        "Ġas",
        "s"
      ],
      [
        "t",
        "Ã©"
      ],
      [
        "Ġ",
        "ans"
      ],
      [
        "Ġd",
        "Ã©t"
      ],
      [
        "Ġc",
        "iel"
      ],
      [
        "re",
        "r"
      ],
      [
        "Ġm",
        "ou"
      ],
      [
        "Ġb",
        "ou"
      ],
      [
        "Ġg",
        "al"
      ],
      [
        "Ġcr",
        "oy"
      ],
      [
        "Ġquel",
        "ques"
      ],
      [
        "Ã®",
        "n"
      ],
      [
        "ail",
        "l"
      ],
      [
        "omb",
        "re"
      ],
      [
        "Ġaut",
        "ant"
      ],
      [
        "Ġvois",
        "in"
      ],
      [
        ";",
        ";"
      ],
      [
        "p",
        "h"
      ],
      [
        "Ġ",
        "."
      ],
      [
        "Ġd",
        "Ã¨s"
      ],
      [
        "Ġs",
        "ens"
      ],
      [
        "Ġm",
        "out"
      ],
      [
        "Ġm",
        "ons"
      ],
      [
        "ent",
        "ure"
      ],
      [
        "Ġch",
        "ant"
      ],
      [
        "Ġch",
        "ass"
      ],
      [
        "Ġch",
        "amp"
      ],
      [
        "Ã¨",
        "me"
      ],
      [
        "Ġpr",
        "en"
      ],
      [
        "Ġpl",
        "ut"
      ],
      [
        "Ġse",
        "ign"
      ],
      [
        "Ġre",
        "m"
      ],
      [
        "onn",
        "eur"
      ],
      [
        "Ġcom",
        "b"
      ],
      [
        "Ġcom",
        "ment"
      ],
      [
        "Ã¢",
        "ne"
      ],
      [
        "Ġcr",
        "ois"
      ],
      [
        "Ã§",
        "on"
      ],
      [
        "Ġpetit",
        "s"
      ],
      [
        "Ġjeu",
        "ne"
      ],
      [
        "Ġph",
        "il"
      ],
      [
        "a",
        "ff"
      ],
      [
        "l",
        "le"
      ],
      [
        "Ġ",
        "Ã´"
      ],
      [
        "Ġc",
        "au"
      ],
      [
        "ai",
        "m"
      ],
      [
        "Ġa",
        "b"
      ],
      [
        "Ġqu",
        "a"
      ],
      [
        "Ġv",
        "er"
      ],
      [
        "Ġb",
        "our"
      ],
      [
        "Ġj",
        "ou"
      ],
      [
        "Ã¨",
        "te"
      ],
      [
        "Ġce",
        "ci"
      ],
      [
        "Ġav",
        "oir"
      ],
      [
        "Ġmais",
        "on"
      ],
      [
        "Ġcon",
        "f"
      ],
      [
        "Ġal",
        "ors"
      ],
      [
        "Ġcont",
        "r"
      ],
      [
        "Ġcont",
        "ent"
      ],
      [
        "Ġmet",
        "tre"
      ],
      [
        "Ġlais",
        "se"
      ],
      [
        "Ġanim",
        "al"
      ],
      [
        "Ġsou",
        "ff"
      ],
      [
        "c",
        "un"
      ],
      [
        "Ġ",
        "........"
      ],
      [
        "Ġs",
        "oin"
      ],
      [
        "re",
        "z"
      ],
      [
        "Ġm",
        "en"
      ],
      [
        "Ġm",
        "om"
      ],
      [
        "Ġm",
        "Ã¨re"
      ],
      [
        "Ġb",
        "re"
      ],
      [
        "Ġch",
        "em"
      ],
      [
        "at",
        "ion"
      ],
      [
        "..",
        "."
      ],
      [
        "ab",
        "ord"
      ],
      [
        "Ġsi",
        "re"
      ],
      [
        "ĠdÃ©",
        "j"
      ],
      [
        "res",
        "se"
      ],
      [
        "Ġmes",
        "si"
      ],
      [
        "Ġfais",
        "ait"
      ],
      [
        "Åĵ",
        "u"
      ],
      [
        "c",
        "t"
      ],
      [
        "f",
        "ait"
      ],
      [
        "n",
        "es"
      ],
      [
        "p",
        "p"
      ],
      [
        "v",
        "ent"
      ],
      [
        "Ġ",
        "ici"
      ],
      [
        "Ġl",
        "ors"
      ],
      [
        "Ġs",
        "Ã©"
      ],
      [
        "Ġs",
        "omme"
      ],
      [
        "Ġt",
        "a"
      ],
      [
        "te",
        "mp"
      ],
      [
        "Ġtr",
        "ou"
      ],
      [
        "end",
        "s"
      ],
      [
        "Ġcr",
        "u"
      ],
      [
        "Ġcr",
        "ut"
      ],
      [
        "Ġcon",
        "se"
      ],
      [
        "Ġo",
        "ff"
      ],
      [
        "ĠrÃ©",
        "c"
      ],
      [
        "Ġes",
        "p"
      ],
      [
        "Ġdou",
        "x"
      ],
      [
        "Ġcher",
        "cher"
      ],
      [
        "Ġret",
        "our"
      ],
      [
        "Ġnouv",
        "eau"
      ],
      [
        "a",
        "y"
      ],
      [
        "a",
        "que"
      ],
      [
        "f",
        "s"
      ],
      [
        "Ġp",
        "at"
      ],
      [
        "Ġs",
        "orte"
      ],
      [
        "Ġc",
        "ou"
      ],
      [
        "es",
        "prit"
      ],
      [
        "Ġm",
        "at"
      ],
      [
        "an",
        "n"
      ],
      [
        "Ġt",
        "oi"
      ],
      [
        "Ġt",
        "ort"
      ],
      [
        "Ġt",
        "ire"
      ],
      [
        "Ġv",
        "ieux"
      ],
      [
        "Ġn",
        "om"
      ],
      [
        "le",
        "ment"
      ],
      [
        "Ġb",
        "Ãªte"
      ],
      [
        "Ġch",
        "iens"
      ],
      [
        "Ġpr",
        "Ã¨s"
      ],
      [
        "Ġne",
        "z"
      ],
      [
        "ĠÃ©",
        "l"
      ],
      [
        "Ġaut",
        "res"
      ],
      [
        "Ã©p",
        "h"
      ],
      [
        "Ġvoi",
        "x"
      ],
      [
        "u",
        "y"
      ],
      [
        "Ġd",
        "ern"
      ],
      [
        "Ġs",
        "c"
      ],
      [
        "Ġf",
        "all"
      ],
      [
        "ar",
        "gent"
      ],
      [
        "is",
        "se"
      ],
      [
        "Ã¨",
        "vre"
      ],
      [
        "el",
        "les"
      ],
      [
        "ch",
        "es"
      ],
      [
        "Ġpar",
        "mi"
      ],
      [
        "Ġtr",
        "Ã¨s"
      ],
      [
        "Ġh",
        "ommes"
      ],
      [
        "Ġdi",
        "ff"
      ],
      [
        "ĠÃ©",
        "ch"
      ],
      [
        "Ġcon",
        "d"
      ],
      [
        "Ġe",
        "ff"
      ],
      [
        "ap",
        "pr"
      ],
      [
        "Ġser",
        "ait"
      ],
      [
        "Ġpuis",
        "s"
      ],
      [
        "Ġmar",
        "i"
      ],
      [
        "Ġbr",
        "uit"
      ],
      [
        "agn",
        "e"
      ],
      [
        "Ġtrouv",
        "a"
      ],
      [
        "Ġdev",
        "ant"
      ],
      [
        "Ġju",
        "ge"
      ],
      [
        "Ġdonn",
        "er"
      ],
      [
        "Ġber",
        "ger"
      ],
      [
        "ĠtrÃ©s",
        "or"
      ],
      [
        "Ġqua",
        "tre"
      ],
      [
        "ĠdÃ©j",
        "Ãł"
      ],
      [
        "n",
        "em"
      ],
      [
        "Ġd",
        "ame"
      ],
      [
        "Ġp",
        "eur"
      ],
      [
        "Ġm",
        "eu"
      ],
      [
        "Ġqu",
        "ant"
      ],
      [
        "Ġv",
        "in"
      ],
      [
        "Ġn",
        "uit"
      ],
      [
        "Ġr",
        "este"
      ],
      [
        "te",
        "z"
      ],
      [
        "Ġch",
        "aque"
      ],
      [
        "Ġpr",
        "it"
      ],
      [
        "Ġpr",
        "ix"
      ],
      [
        "Ġpas",
        "se"
      ],
      [
        "Ġre",
        "pr"
      ],
      [
        "Ġquel",
        "qu"
      ],
      [
        "Ġcon",
        "v"
      ],
      [
        "Ġdis",
        "c"
      ],
      [
        "Ġgrand",
        "s"
      ],
      [
        "Ġall",
        "ait"
      ],
      [
        "ess",
        "us"
      ],
      [
        "Ġdem",
        "eure"
      ],
      [
        "Ġpass",
        "er"
      ],
      [
        "ist",
        "oire"
      ],
      [
        "Ġprem",
        "ier"
      ],
      [
        "Ġseign",
        "eur"
      ],
      [
        "i",
        "eur"
      ],
      [
        "n",
        "ous"
      ],
      [
        "r",
        "aient"
      ],
      [
        "Ġ",
        ","
      ],
      [
        "Ġl",
        "iv"
      ],
      [
        "Ġs",
        "o"
      ],
      [
        "Ġs",
        "el"
      ],
      [
        "Ġs",
        "oins"
      ],
      [
        "qu",
        "oi"
      ],
      [
        "er",
        "m"
      ],
      [
        "Ġt",
        "en"
      ],
      [
        "Ġf",
        "ol"
      ],
      [
        "Ġb",
        "es"
      ],
      [
        "Ġb",
        "Ã¢t"
      ],
      [
        "Ġr",
        "Ã©s"
      ],
      [
        "Ġson",
        "ge"
      ],
      [
        "ain",
        "t"
      ],
      [
        "Ġh",
        "Ã©r"
      ],
      [
        "Ġpour",
        "quoi"
      ],
      [
        "Ġre",
        "prit"
      ],
      [
        "Ġav",
        "ant"
      ],
      [
        "ĠÃ©t",
        "r"
      ],
      [
        "aut",
        "res"
      ],
      [
        "Ġin",
        "s"
      ],
      [
        "Ġam",
        "is"
      ],
      [
        "Ġar",
        "t"
      ],
      [
        "Ġco",
        "eur"
      ],
      [
        "Ġgu",
        "erre"
      ],
      [
        "Ġcomm",
        "un"
      ],
      [
        "Ġad",
        "ieu"
      ],
      [
        "Ġhab",
        "it"
      ],
      [
        "f",
        "in"
      ],
      [
        "u",
        "d"
      ],
      [
        "Ġd",
        "estin"
      ],
      [
        "Ġp",
        "ai"
      ],
      [
        "Ġp",
        "endant"
      ],
      [
        "Ã©",
        "es"
      ],
      [
        "er",
        "r"
      ],
      [
        "er",
        "be"
      ],
      [
        "Ġt",
        "elle"
      ],
      [
        "Ġf",
        "Ã»t"
      ],
      [
        "Ġb",
        "ient"
      ],
      [
        "is",
        "te"
      ],
      [
        "Ġr",
        "om"
      ],
      [
        "Ġr",
        "iv"
      ],
      [
        "Ġcr",
        "oit"
      ],
      [
        "ĠÃ©t",
        "Ã©"
      ],
      [
        "av",
        "ant"
      ],
      [
        "Ġtrouv",
        "e"
      ],
      [
        "cr",
        "it"
      ],
      [
        "Ġemp",
        "l"
      ],
      [
        "Ġchev",
        "al"
      ],
      [
        "Ġmessi",
        "eurs"
      ],
      [
        "Ġbient",
        "Ã´t"
      ],
      [
        "d",
        "essus"
      ],
      [
        "n",
        "ier"
      ],
      [
        "Ã",
        "¯"
      ],
      [
        "Ġl",
        "ang"
      ],
      [
        "Ġs",
        "ole"
      ],
      [
        "Ġc",
        "ouv"
      ],
      [
        "ai",
        "gle"
      ],
      [
        "Ã©",
        "ment"
      ],
      [
        "Ġm",
        "anger"
      ],
      [
        "an",
        "e"
      ],
      [
        "Ġt",
        "es"
      ],
      [
        "Ġf",
        "oi"
      ],
      [
        "Ġv",
        "u"
      ],
      [
        "Ġv",
        "ent"
      ],
      [
        "Ġb",
        "ord"
      ],
      [
        "Ã¨",
        "le"
      ],
      [
        "end",
        "u"
      ],
      [
        "ui",
        "re"
      ],
      [
        "Ġre",
        "mp"
      ],
      [
        "Ġcr",
        "Ã©"
      ],
      [
        "ĠÃ©t",
        "aient"
      ],
      [
        "emp",
        "le"
      ],
      [
        "ac",
        "c"
      ],
      [
        "Ġin",
        "c"
      ],
      [
        "oy",
        "en"
      ],
      [
        "erre",
        "ur"
      ],
      [
        "Ġvoy",
        "ant"
      ],
      [
        "Ġvoy",
        "ez"
      ],
      [
        "Ġpe",
        "in"
      ],
      [
        "Ġmom",
        "ent"
      ],
      [
        "Ġsole",
        "il"
      ],
      [
        "e",
        "Ã»t"
      ],
      [
        "o",
        "Ã»t"
      ],
      [
        "Ġd",
        "orm"
      ],
      [
        "en",
        "v"
      ],
      [
        "Ġp",
        "ot"
      ],
      [
        "es",
        "p"
      ],
      [
        "re",
        "ux"
      ],
      [
        "it",
        "iÃ©"
      ],
      [
        "Ġf",
        "ille"
      ],
      [
        "Ġau",
        "rait"
      ],
      [
        "at",
        "eur"
      ],
      [
        "Ġtr",
        "a"
      ],
      [
        "Ġpour",
        "tant"
      ],
      [
        "iv",
        "ers"
      ],
      [
        "Ġme",
        "ill"
      ],
      [
        "Ġin",
        "d"
      ],
      [
        "Ġtant",
        "Ã´t"
      ],
      [
        "dr",
        "oit"
      ],
      [
        "Ġtrouv",
        "er"
      ],
      [
        "Ġex",
        "tr"
      ],
      [
        "Ġpa",
        "y"
      ],
      [
        "anim",
        "al"
      ],
      [
        "Ġseu",
        "lement"
      ],
      [
        "Ġcher",
        "ch"
      ],
      [
        "ĠÃ¢",
        "me"
      ],
      [
        "con",
        "tre"
      ],
      [
        "Ġhum",
        "ains"
      ],
      [
        "Ġreg",
        "ard"
      ],
      [
        "Ġcau",
        "se"
      ],
      [
        "Ġchem",
        "in"
      ],
      [
        "Ġsel",
        "on"
      ],
      [
        "c",
        "is"
      ],
      [
        "i",
        "de"
      ],
      [
        "r",
        "s"
      ],
      [
        "s",
        "er"
      ],
      [
        "Ġ",
        "ouvr"
      ],
      [
        "Ġl",
        "ar"
      ],
      [
        "Ġd",
        "oit"
      ],
      [
        "Ġp",
        "ut"
      ],
      [
        "Ġp",
        "eau"
      ],
      [
        "Ġs",
        "al"
      ],
      [
        "Ġs",
        "ert"
      ],
      [
        "ai",
        "se"
      ],
      [
        "ai",
        "res"
      ],
      [
        "Ġv",
        "ont"
      ],
      [
        "Ġg",
        "arde"
      ],
      [
        "Ġh",
        "Ã©l"
      ],
      [
        "pr",
        "is"
      ],
      [
        "ĠÃ©",
        "g"
      ],
      [
        "Ġser",
        "p"
      ],
      [
        "ag",
        "er"
      ],
      [
        "Ãªt",
        "s"
      ],
      [
        "Ġmain",
        "te"
      ],
      [
        "Ġex",
        "p"
      ],
      [
        "Ġpa",
        "ys"
      ],
      [
        "Ġvie",
        "ill"
      ],
      [
        "Ġcoup",
        "s"
      ],
      [
        "Ġvoul",
        "ut"
      ],
      [
        "gr",
        "Ã©"
      ],
      [
        "Ġesprit",
        "s"
      ],
      [
        "Ġcer",
        "f"
      ],
      [
        "Ġpos",
        "s"
      ],
      [
        "Ġmons",
        "ieur"
      ],
      [
        "Ġ........",
        "...."
      ],
      [
        "temp",
        "s"
      ],
      [
        "Ġremp",
        "l"
      ],
      [
        "b",
        "r"
      ],
      [
        "h",
        "onneur"
      ],
      [
        "h",
        "istoire"
      ],
      [
        "i",
        "a"
      ],
      [
        "l",
        "s"
      ],
      [
        "n",
        "er"
      ],
      [
        "n",
        "ent"
      ],
      [
        "o",
        "les"
      ],
      [
        "u",
        "le"
      ],
      [
        "Ġs",
        "Ã»"
      ],
      [
        "Ġs",
        "ol"
      ],
      [
        "Ġm",
        "Ã©t"
      ],
      [
        "Ġa",
        "c"
      ],
      [
        "Ġa",
        "g"
      ],
      [
        "Ġt",
        "ir"
      ],
      [
        "eu",
        "se"
      ],
      [
        "Ġv",
        "al"
      ],
      [
        "Ġv",
        "aut"
      ],
      [
        "Ġv",
        "int"
      ],
      [
        "Ġr",
        "i"
      ],
      [
        "Ġr",
        "ois"
      ],
      [
        "Ġr",
        "ats"
      ],
      [
        "Ġau",
        "cun"
      ],
      [
        "Ġsu",
        "ff"
      ],
      [
        "ce",
        "au"
      ],
      [
        "ois",
        "s"
      ],
      [
        "Ġbien",
        "s"
      ],
      [
        "Ġgr",
        "en"
      ],
      [
        "im",
        "ent"
      ],
      [
        "Ġquel",
        "le"
      ],
      [
        "Ġser",
        "a"
      ],
      [
        "Ġpro",
        "v"
      ],
      [
        "Ġpart",
        "out"
      ],
      [
        "Ġautre",
        "fois"
      ],
      [
        "Ġsort",
        "ir"
      ],
      [
        "Ġven",
        "ir"
      ],
      [
        "Ġserv",
        "ir"
      ],
      [
        "Ġprop",
        "os"
      ],
      [
        "Ġpers",
        "onn"
      ],
      [
        "Ġdiv",
        "ers"
      ],
      [
        "aff",
        "aire"
      ],
      [
        "Ġdisc",
        "ours"
      ],
      [
        "Ġpai",
        "x"
      ],
      [
        "avant",
        "age"
      ],
      [
        "c",
        "s"
      ],
      [
        "o",
        "ch"
      ],
      [
        "v",
        "er"
      ],
      [
        "Ġ",
        "us"
      ],
      [
        "Ġd",
        "ents"
      ],
      [
        "Ġc",
        "amp"
      ],
      [
        "Ġm",
        "ent"
      ],
      [
        "Ġm",
        "auv"
      ],
      [
        "er",
        "Ã§"
      ],
      [
        "Ġqu",
        "eu"
      ],
      [
        "Ġt",
        "h"
      ],
      [
        "Ġt",
        "Ã©m"
      ],
      [
        "Ġf",
        "av"
      ],
      [
        "Ġv",
        "eu"
      ],
      [
        "Ġn",
        "Ã©c"
      ],
      [
        "un",
        "ivers"
      ],
      [
        "ar",
        "tit"
      ],
      [
        "Ġla",
        "s"
      ],
      [
        "Ġj",
        "ard"
      ],
      [
        "Ġen",
        "se"
      ],
      [
        "Ã¨",
        "de"
      ],
      [
        "Ġpar",
        "l"
      ],
      [
        "Ã´",
        "te"
      ],
      [
        "ur",
        "ent"
      ],
      [
        "tr",
        "ap"
      ],
      [
        "Ġren",
        "contre"
      ],
      [
        "Ġmain",
        "s"
      ],
      [
        "ign",
        "or"
      ],
      [
        "Ġco",
        "q"
      ],
      [
        "Ġport",
        "er"
      ],
      [
        "Ġfont",
        "aine"
      ],
      [
        "Ġrep",
        "artit"
      ],
      [
        "Ġmalh",
        "eureux"
      ],
      [
        "ĠdÃ©l",
        "ic"
      ],
      [
        "Ġplut",
        "Ã´t"
      ],
      [
        "ĠsÃ©",
        "jour"
      ],
      [
        "ĠrÃ©c",
        "it"
      ],
      [
        "Ġextr",
        "Ãªme"
      ],
      [
        "ĠhÃ©l",
        "as"
      ],
      [
        "Ġvieill",
        "ard"
      ],
      [
        "Ġqueu",
        "e"
      ],
      [
        "ĠnÃ©c",
        "ess"
      ],
      [
        ")",
        ","
      ],
      [
        "a",
        "te"
      ],
      [
        "g",
        "t"
      ],
      [
        "i",
        "Ã¨res"
      ],
      [
        "l",
        "us"
      ],
      [
        "t",
        "h"
      ],
      [
        "Ġd",
        "avantage"
      ],
      [
        "Ġs",
        "ang"
      ],
      [
        "Ġs",
        "ommes"
      ],
      [
        "Ġc",
        "ours"
      ],
      [
        "Ġm",
        "il"
      ],
      [
        "Ġt",
        "Ã¢"
      ],
      [
        "eu",
        "s"
      ],
      [
        "our",
        "d"
      ],
      [
        "Ġr",
        "endre"
      ],
      [
        "Ġr",
        "app"
      ],
      [
        "te",
        "ment"
      ],
      [
        "Ġg",
        "re"
      ],
      [
        "Ã¨",
        "ne"
      ],
      [
        "Ġpr",
        "oie"
      ],
      [
        "ien",
        "ne"
      ],
      [
        "ge",
        "ance"
      ],
      [
        "Ġh",
        "as"
      ],
      [
        "Ġre",
        "tr"
      ],
      [
        "Ġav",
        "aient"
      ],
      [
        "Ġcon",
        "te"
      ],
      [
        "ill",
        "age"
      ],
      [
        "oy",
        "er"
      ],
      [
        "Ġvoy",
        "age"
      ],
      [
        "Ġdem",
        "i"
      ],
      [
        "Ġgu",
        "Ã¨re"
      ],
      [
        "Ġai",
        "m"
      ],
      [
        "ĠÃ¢",
        "ne"
      ],
      [
        "Ġprop",
        "re"
      ],
      [
        "Ġmalh",
        "eur"
      ],
      [
        "Ġpers",
        "onne"
      ],
      [
        "aur",
        "ais"
      ],
      [
        ".",
        "\""
      ],
      [
        "a",
        "yant"
      ],
      [
        "h",
        "ait"
      ],
      [
        "i",
        "me"
      ],
      [
        "o",
        "eu"
      ],
      [
        "o",
        "che"
      ],
      [
        "r",
        "ais"
      ],
      [
        "r",
        "ir"
      ],
      [
        "t",
        "Ã©r"
      ],
      [
        "y",
        "m"
      ],
      [
        "Ġ",
        "emb"
      ],
      [
        "Ġs",
        "au"
      ],
      [
        "qu",
        "er"
      ],
      [
        "Ġm",
        "ir"
      ],
      [
        "Ġm",
        "aud"
      ],
      [
        "Ġa",
        "h"
      ],
      [
        "Ġa",
        "fin"
      ],
      [
        "Ġt",
        "al"
      ],
      [
        "Ġt",
        "ard"
      ],
      [
        "Ġf",
        "am"
      ],
      [
        "Ġf",
        "irent"
      ],
      [
        "Ġv",
        "ais"
      ],
      [
        "Ġv",
        "iendr"
      ],
      [
        "Ġn",
        "our"
      ],
      [
        "Ġla",
        "p"
      ],
      [
        "in",
        "aire"
      ],
      [
        "Ġen",
        "nem"
      ],
      [
        "Ġen",
        "droit"
      ],
      [
        "Ġque",
        "re"
      ],
      [
        "Ġg",
        "agn"
      ],
      [
        "Ġg",
        "oÃ»t"
      ],
      [
        "Ġpr",
        "es"
      ],
      [
        "Ġpar",
        "ler"
      ],
      [
        "Ġsu",
        "cc"
      ],
      [
        "ir",
        "ait"
      ],
      [
        "Ġh",
        "ar"
      ],
      [
        "Ġdes",
        "c"
      ],
      [
        "Ġsa",
        "g"
      ],
      [
        "end",
        "ait"
      ],
      [
        "and",
        "e"
      ],
      [
        "Ġav",
        "is"
      ],
      [
        "Ġav",
        "enture"
      ],
      [
        "Ġcr",
        "ier"
      ],
      [
        "Ġma",
        "d"
      ],
      [
        "Ġmon",
        "tre"
      ],
      [
        "ĠÃ©",
        "crit"
      ],
      [
        "Ġdis",
        "p"
      ],
      [
        "Ġquelque",
        "fois"
      ],
      [
        "Ġpass",
        "Ã©"
      ],
      [
        "Ġpass",
        "ant"
      ],
      [
        "Ġmet",
        "s"
      ],
      [
        "mp",
        "e"
      ],
      [
        "Ġvoul",
        "ait"
      ],
      [
        "Ġman",
        "iÃ¨re"
      ],
      [
        "Ġtel",
        "s"
      ],
      [
        "Ġsou",
        "hait"
      ],
      [
        "Ġacc",
        "our"
      ],
      [
        "Ġtrait",
        "s"
      ],
      [
        "Ġpu",
        "bl"
      ],
      [
        "Ġob",
        "jet"
      ],
      [
        "Ġmout",
        "on"
      ],
      [
        "Ġbes",
        "oin"
      ],
      [
        "Ġhas",
        "ard"
      ],
      [
        "a",
        "ch"
      ],
      [
        "a",
        "Ã®tre"
      ],
      [
        "c",
        "Ã¨s"
      ],
      [
        "d",
        "uit"
      ],
      [
        "h",
        "ui"
      ],
      [
        "h",
        "um"
      ],
      [
        "j",
        "us"
      ],
      [
        "o",
        "que"
      ],
      [
        "o",
        "Ã¹"
      ],
      [
        "u",
        "es"
      ],
      [
        "u",
        "de"
      ],
      [
        "v",
        "ant"
      ],
      [
        "Ġ",
        "os"
      ],
      [
        "Ġp",
        "Ã©r"
      ],
      [
        "Ġs",
        "t"
      ],
      [
        "Ġs",
        "at"
      ],
      [
        "Ġc",
        "it"
      ],
      [
        "on",
        "ge"
      ],
      [
        "qu",
        "et"
      ],
      [
        "er",
        "a"
      ],
      [
        "Ġt",
        "ours"
      ],
      [
        "Ġv",
        "ille"
      ],
      [
        "Ġv",
        "iens"
      ],
      [
        "oi",
        "gn"
      ],
      [
        "Ġb",
        "ons"
      ],
      [
        "Ġj",
        "et"
      ],
      [
        "Ġg",
        "ent"
      ],
      [
        "Ġg",
        "ard"
      ],
      [
        "Ġtr",
        "iste"
      ],
      [
        "out",
        "er"
      ],
      [
        "Ã©t",
        "ant"
      ],
      [
        "ir",
        "a"
      ],
      [
        "Ã¢",
        "te"
      ],
      [
        "Ġcr",
        "aign"
      ],
      [
        "Ġsi",
        "mp"
      ],
      [
        "ĠdÃ©",
        "ch"
      ],
      [
        "Ġli",
        "Ã¨vre"
      ],
      [
        "Ġmon",
        "ar"
      ],
      [
        "Ġo",
        "h"
      ],
      [
        "Ġo",
        "re"
      ],
      [
        "Ġcour",
        "r"
      ],
      [
        "Ġbeau",
        "x"
      ],
      [
        "Ġbr",
        "as"
      ],
      [
        "Ġloup",
        "s"
      ],
      [
        "ord",
        "inaire"
      ],
      [
        "Ġall",
        "a"
      ],
      [
        "Ġvol",
        "eurs"
      ],
      [
        "Ġviv",
        "re"
      ],
      [
        "Ġpouv",
        "ait"
      ],
      [
        "ĠprÃ©",
        "v"
      ],
      [
        "Ġgl",
        "oire"
      ],
      [
        "jour",
        "d"
      ],
      [
        "Ġmour",
        "ir"
      ],
      [
        "Åĵur",
        "s"
      ],
      [
        "Ġvou",
        "lez"
      ],
      [
        "Ã©ph",
        "ant"
      ],
      [
        "Ġmeu",
        "nier"
      ],
      [
        "Ġnour",
        "r"
      ],
      [
        "b",
        "is"
      ],
      [
        "c",
        "er"
      ],
      [
        "i",
        "p"
      ],
      [
        "i",
        "es"
      ],
      [
        "o",
        "cr"
      ],
      [
        "r",
        "age"
      ],
      [
        "Ġ",
        "z"
      ],
      [
        "Ġ",
        "Åĵu"
      ]
    ]
  }
}